{"vocab": {"existing": 4493, "grandmaster": 27101, "lansing": 22304, "[unused65]": 66, "##elled": 21148, "advent": 13896, "plantations": 14979, "blanchard": 26870, "disbelief": 12537, "unsafe": 25135, "fiercely": 16265, "##ln": 19666, "fellowship": 7881, "##caster": 25490, "##esses": 26636, "worn": 6247, "##rissa": 26571, "kobayashi": 28930, "##quitable": 28298, "panic": 6634, "\u65e5": 1864, "catalog": 12105, "hilary": 22744, "lafayette": 14425, "bites": 15424, "##in": 2378, "[unused291]": 296, "nfc": 22309, "front": 2392, "cardinals": 9310, "crows": 21623, "shootout": 18297, "feasible": 22945, "ratings": 8599, "diplomatic": 8041, "education": 2495, "eritrea": 26040, "##tung": 21847, "belarus": 12545, "zone": 4224, "bruised": 18618, "##lty": 24228, "##\u10dd": 29986, "whereas": 6168, "parameters": 11709, "joachim": 17286, "gulped": 25411, "##mina": 22311, "rightful": 27167, "acting": 3772, "verify": 20410, "preference": 12157, "ranking": 5464, "letterman": 26593, "haley": 16624, "##\u03b7\u03c2": 29155, "##\u2090": 30089, "shops": 7340, "oyster": 21480, "jurisdictions": 17370, "singular": 13048, "##rdo": 20683, "##wyl": 27740, "gunners": 29000, "organization": 3029, "##bham": 25522, "prosecutor": 12478, "julio": 15090, "ruben": 19469, "homeland": 10759, "ponds": 16879, "forced": 3140, "##ement": 13665, "oct": 13323, "amadeus": 27185, "cater": 23488, "imprisoned": 8580, "pitches": 19299, "[unused433]": 438, "140": 8574, "item": 8875, "undeveloped": 29341, "elbows": 13690, "akron": 22735, "inhaled": 15938, "##ttal": 28200, "indifference": 25920, "hanson": 17179, "##stad": 16917, "##\u4e3b": 30273, "##ism": 2964, "thwarted": 28409, "panels": 9320, "derbyshire": 15207, "civic": 8388, "fairfax": 17833, "sails": 17553, "##\u2206": 30122, "##gger": 13327, "##cks": 10603, "bmg": 24499, "\u0985": 1347, "monthly": 7058, "sardinia": 21594, "reporters": 12060, "[unused8]": 9, "##rst": 12096, "tough": 7823, "##born": 10280, "\u0dbb": 1405, "1640": 21533, "johnstone": 24160, "285": 21777, "graves": 9729, "servers": 14903, "ringo": 25589, "##nen": 10224, "smirk": 15081, "kensington": 17775, "markus": 23030, "detail": 6987, "slain": 19668, "sired": 26940, "histories": 15215, "1933": 4537, "sensory": 16792, "relation": 7189, "thoughtfully": 19897, "claudia": 13479, "wheat": 10500, "bbc": 4035, "##ain": 8113, "microphone": 15545, "sell": 5271, "ville": 20184, "sv": 17917, "##ska": 8337, "proficiency": 26293, "\u0279": 1125, "##listic": 27348, "shutting": 17521, "##uen": 24997, "genuinely": 15958, "ne": 11265, "exposing": 14944, "##kt": 25509, "##\u0bb5": 29930, "line": 2240, "seizure": 18634, "##ncy": 9407, "ghostly": 24407, "congressional": 7740, "1907": 5528, "cass": 16220, "unavailable": 20165, "theorem": 9872, "money": 2769, "processed": 13995, "grabbed": 4046, "commodities": 21955, "skipped": 16791, "##rified": 22618, "helm": 16254, "##irus": 26013, "chips": 11772, "packs": 15173, "[unused74]": 75, "##tick": 26348, "##trust": 24669, "anthologies": 25675, "1709": 28955, "yeast": 21957, "elk": 18995, "corpus": 13931, "ra": 10958, "uncanny": 28953, "keep": 2562, "increased": 3445, "oblivion": 24034, "##till": 28345, "singapore": 5264, "courtyard": 10119, "##ass": 12054, "##firmed": 23141, "lavender": 20920, "##pper": 18620, "raphael": 12551, "marshall": 5832, "montgomery": 8482, "diversion": 20150, "punished": 14248, "poly": 26572, "contents": 8417, "214": 19936, "undergoes": 29129, "pali": 28619, "tormented": 29026, "##over": 7840, "injuries": 6441, "fit": 4906, "thornton": 14630, "##br": 19892, "reunited": 11653, "publisher": 6674, "steam": 5492, "\u05d2": 1243, "magma": 28933, "##lington": 18722, "bunk": 25277, "aforementioned": 17289, "rotation": 9963, "lauderdale": 23520, "##gren": 13565, "rectangular": 10806, "volkswagen": 18817, "tc": 22975, "franz": 8965, "lowest": 7290, "eduard": 20424, "episodes": 4178, "exercised": 17747, "seek": 6148, "archaeologists": 19254, "almond": 26011, "outing": 26256, "metz": 24424, "orton": 25161, "##person": 27576, "##nst": 23808, "##:": 29627, "sedimentary": 25503, "rowing": 12037, "withdrawing": 21779, "prohibition": 13574, "modify": 19933, "##ste": 13473, "raided": 18784, "[unused103]": 108, "conserve": 27749, "astoria": 29285, "1739": 25801, "##agger": 27609, "maori": 12600, "112": 11176, "\u2077": 1541, "dominate": 16083, "1883": 7257, "enforcing": 27455, "neue": 27713, "beatrice": 14807, "##bed": 8270, "axe": 12946, "##rz": 15378, "19": 2539, "escape": 4019, "staffordshire": 17052, "fault": 6346, "converting": 16401, "lake": 2697, "2003": 2494, "brest": 22451, "caracas": 21675, "iris": 11173, "barangay": 20937, "earl": 4656, "##mo": 5302, "luton": 17807, "##lers": 12910, "##lic": 10415, "##ide": 5178, "notions": 21951, "madly": 29179, "presented": 3591, "foothills": 18455, "##hmi": 26837, "deterioration": 26118, "##raus": 25965, "led": 2419, "[unused910]": 915, "jewellery": 21545, "thrive": 25220, "##isha": 24032, "penetrate": 19136, "[unused732]": 737, "banjo": 16698, "sunglasses": 17072, "feels": 5683, "factions": 13815, "bennett": 8076, "hosts": 6184, "granny": 19794, "raven": 10000, "easter": 10957, "effectiveness": 12353, "##ality": 23732, "\u057a": 1233, "terre": 25170, "ferrari": 13632, "##res": 6072, "dolores": 21544, "eldest": 7310, "unused": 15171, "\u90e1": 1959, "##raya": 29539, "##form": 14192, "rom": 17083, "grange": 18203, "vendors": 17088, "regulators": 25644, "doping": 23799, "claw": 15020, "vicinity": 9884, "244": 24194, "gabby": 27183, "johan": 13093, "[unused558]": 563, "poultry": 22468, "cardboard": 19747, "piano": 3682, "thence": 23166, "credibility": 21553, "billy": 5006, "dominique": 18165, "##ora": 6525, "knox": 11994, "palm": 5340, "stems": 12402, "undergoing": 14996, "[unused922]": 927, "dried": 9550, "waterways": 21938, "nr": 17212, "##pu": 14289, "lining": 14834, "temporal": 15850, "##\u0437": 29744, "stripe": 18247, "willow": 11940, "gaps": 16680, "skeptical": 18386, "faber": 21720, "1642": 24061, "##shot": 19040, "explored": 10641, "##\u0f0b": 29960, "victor": 5125, "[unused889]": 894, "[unused800]": 805, "sunshine": 9609, "gunpowder": 22220, "innovative": 9525, "##peed": 25599, "##sd": 16150, "delighted": 15936, "downstream": 13248, "dresden": 12983, "##\u20a9": 30101, "[unused773]": 778, "helicopters": 12400, "humanist": 24464, "1890": 6193, "johnston": 10773, "perimeter": 13443, "##mia": 10092, "appropriate": 6413, "stand": 3233, "hangul": 19051, "echoing": 17142, "wrote": 2626, "unrelated": 15142, "spectroscopy": 25458, "##boys": 24916, "advance": 5083, "substrate": 16305, "real": 2613, "##\u0574": 29776, "spins": 23371, "307": 24559, "shandong": 25768, "canteen": 26449, "##iring": 24771, "sheath": 21867, "##urst": 29402, "rs": 12667, "protagonists": 21989, "[unused279]": 284, "hasn": 8440, "2017": 2418, "threshold": 11207, "seaman": 21626, "statewide": 13486, "dwyer": 29394, "[unused643]": 648, "##lder": 16502, "anglia": 24217, "[unused918]": 923, "supplemental": 27024, "augmented": 19335, "inventions": 21644, "disneyland": 25104, "sensual": 18753, "speeches": 13867, "##\u524d": 30302, "build": 3857, "##\u05e6": 29809, "provinces": 6941, "sighing": 19381, "##odies": 27391, "##n": 2078, "[unused72]": 73, "22nd": 13816, "neck": 3300, "14th": 6400, "biology": 7366, "means": 2965, "sponsor": 10460, "language": 2653, "\u0268": 1118, "normal": 3671, "grasped": 15517, "simone": 14072, "peppers": 23582, "##anta": 26802, "##ntation": 23436, "yang": 8675, "spice": 17688, "##ima": 9581, "schwartz": 16756, "marjorie": 21562, "attic": 14832, "identified": 4453, "meanings": 15383, "course": 2607, "crumpled": 19814, "bryant": 12471, "greek": 3306, "detrimental": 29172, "restroom": 28249, "springer": 17481, "##gami": 26517, "[unused475]": 480, "broom": 23528, "\u05d3": 1244, "eddy": 16645, "##etic": 16530, "comet": 15699, "tagged": 26610, "robson": 23698, "trough": 23389, "lazarus": 23623, "realm": 8391, "##mp": 8737, "berman": 29482, "calvin": 11130, "##ructured": 26134, "adolescents": 25947, "\u2261": 1607, "##mun": 23041, "expanse": 22944, "##cuit": 28168, "healthy": 7965, "autumn": 7114, "respect": 4847, "farms": 8623, "##wer": 13777, "kwan": 27741, "##ored": 19574, "montane": 21704, "built": 2328, "madeline": 16974, "##\u0279": 29691, "1821": 11723, "como": 18609, "##ining": 24002, "\u0648": 1298, "bad": 2919, "baghdad": 13952, "##eses": 23072, "minus": 15718, "romney": 19615, "##mberg": 29084, "##\u5fc3": 30375, "employees": 5126, "##sa": 3736, "extraordinary": 9313, "catch": 4608, "administrative": 3831, "##phones": 19093, "##mple": 23344, "broken": 3714, "calmly": 12885, "overheard": 20443, "swat": 25414, "crops": 8765, "ronald": 8923, "sima": 26769, "[unused263]": 268, "pakistani": 9889, "separated": 5459, "sparked": 13977, "omaha": 12864, "observers": 14009, "constituents": 24355, "iron": 3707, "midland": 12240, "##cey": 25810, "##writer": 15994, "hooves": 28399, "##hila": 26415, "oboe": 22523, "##uel": 16284, "shouldered": 29383, "##nger": 11392, "##rat": 8609, "foremost": 16097, "remains": 3464, "hamilton": 5226, "considerable": 6196, "knelt": 12804, "trap": 8132, "portal": 9445, "theater": 4258, "slightly": 3621, "overhaul": 18181, "310": 17196, "[unused833]": 838, "##sov": 23230, "delaney": 22101, "horticultural": 26235, "punched": 11696, "absently": 21284, "##uance": 26620, "contractual": 27948, "##\u057f": 29783, "laurie": 16450, "flexible": 12379, "1540": 27536, "accidental": 17128, "showered": 23973, "##ted": 3064, "censorship": 15657, "bathrooms": 28942, "murdoch": 19954, "identifies": 14847, "##tica": 22723, "##pio": 22071, "overview": 19184, "lc": 29215, "bundles": 26825, "interior": 4592, "predictable": 21425, "50th": 12951, "cracking": 15729, "\u6c38": 1896, "foe": 22277, "mobile": 4684, "##fields": 15155, "so": 2061, "##culture": 14561, "trends": 12878, "precisely": 10785, "broadway": 5934, "violation": 11371, "[unused39]": 40, "sudbury": 26487, "freighter": 27945, "install": 16500, "buying": 9343, "[unused191]": 196, "##eni": 18595, "wrapping": 12252, "##\u2265": 30136, "\u90fd": 1961, "nickel": 15519, "donors": 17843, "acknowledged": 8969, "##omi": 20936, "relates": 14623, "gorgeous": 9882, "correct": 6149, "##maker": 8571, "fractures": 28929, "##\u00be": 29665, "cad": 28353, "offs": 12446, "surgical": 11707, "##\u6cd5": 30427, "[unused236]": 241, "77": 6255, "##zuki": 24015, "assassinate": 25683, "impress": 17894, "##gio": 11411, "unlike": 4406, "[unused71]": 72, "[unused909]": 914, "talbot": 14838, "recalling": 21195, "radioactive": 17669, "gaping": 21226, "asturias": 26798, "##rence": 24413, "chin": 5413, "empire": 3400, "hints": 20385, "##aneous": 17191, "##hiff": 25798, "##\u0454": 29759, "elm": 17709, "poles": 10567, "bro": 22953, "##\u0926": 29861, "observations": 9420, "##tara": 27115, "grammatical": 24402, "sumatra": 18262, "##ciation": 23247, "braid": 24148, "\u0445": 1200, "lucius": 15639, "embark": 28866, "also": 2036, "combustion": 16513, "##ka": 2912, "immediate": 6234, "cleopatra": 22003, "##het": 27065, "##ually": 28488, "consist": 8676, "planners": 27155, "[unused353]": 358, "determination": 9128, "concluding": 16228, "either": 2593, "875": 27658, "illustration": 14614, "55th": 29075, "##va": 3567, "blackness": 19573, "kota": 23856, "bali": 20222, "##bria": 21556, "deployed": 7333, "1711": 28455, "acid": 5648, "lover": 7089, "payton": 28666, "scripted": 22892, "saturn": 14784, "?": 1029, "tucson": 17478, "accents": 24947, "mercenaries": 19331, "thereby": 8558, "praised": 5868, "fielded": 20988, "less": 2625, "rippled": 26862, "ford": 4811, "nicholls": 27043, "poznan": 18320, "no": 2053, "bce": 10705, "alloy": 17564, "[unused907]": 912, "averaged": 11398, "to": 2000, "213": 19883, "##sta": 9153, "filling": 8110, "oricon": 22237, "josh": 6498, "adjoining": 13562, "pegasus": 26606, "sided": 11536, "##ky": 4801, "civil": 2942, "warmer": 16676, "##inium": 27585, "harlan": 24276, "##gam": 22864, "kids": 4268, "bridgeport": 27986, "##ries": 5134, "constant": 5377, "scholarships": 15691, "delivers": 18058, "baptist": 7550, "##asse": 27241, "council": 2473, "vitamin": 17663, "[unused391]": 396, "crawley": 28854, "[unused771]": 776, "##\u0291": 29703, "mandatory": 10915, "##\u9547": 30492, "manner": 5450, "gaius": 19564, "plaster": 15673, "##\u0261": 29682, "ito": 23333, "sachs": 22818, "australian": 2827, "unbearable": 24257, "182": 17691, "[unused978]": 983, "##igh": 18377, "disadvantage": 20502, "##ache": 15395, "raises": 13275, "##\u05e1": 29804, "##mission": 25481, "miracles": 17861, "swapped": 29176, "##op": 7361, "##utable": 23056, "##aer": 27867, "regent": 11315, "##2": 2475, "##rock": 16901, "cigarettes": 15001, "##isen": 28992, "64": 4185, "tip": 5955, "##\u026c": 29687, "web": 4773, "commerce": 6236, "480": 17295, "chrysler": 17714, "1761": 21364, "hiram": 27410, "harris": 5671, "species": 2427, "##uk": 6968, "confessed": 14312, "exciting": 10990, "##lika": 25421, "hr": 17850, "clerk": 7805, "##raphic": 20721, "national": 2120, "[unused417]": 422, "##ala": 7911, "bride": 8959, "gabled": 26182, "##sat": 16846, "##liner": 20660, "nitrogen": 14114, "rooster": 27681, "robbins": 18091, "gunshot": 22077, "[unused688]": 693, "267": 25491, "payne": 13470, "tad": 18819, "hereford": 21136, "##ze": 4371, "bumper": 21519, "preview": 19236, "realising": 27504, "ying": 20879, "##ffle": 18142, "balfour": 27560, "##mpt": 27718, "[unused566]": 571, "##bari": 25990, "frescoes": 23360, "for": 2005, "##atal": 27815, "engage": 8526, "cabinet": 5239, "helena": 10269, "extinction": 14446, "##hea": 20192, "whistling": 24350, "handkerchief": 23975, "practical": 6742, "zurich": 10204, "parties": 4243, "sloane": 17558, "natasha": 17399, "winked": 14217, "warm": 4010, "markedly": 29295, "hissing": 26386, "[unused602]": 607, "##`": 29639, "mathew": 25436, "##bula": 28507, "bethlehem": 19360, "##hak": 20459, "haste": 24748, "attorneys": 16214, "##thest": 20515, "socrates": 26772, "restless": 15035, "hc": 16731, "##dded": 19520, "marking": 10060, "##jit": 18902, "[unused382]": 387, "buyers": 17394, "##mmel": 29033, "clinched": 18311, "museums": 9941, "##mbe": 18552, "\u2202": 1592, "lancashire": 9638, "largest": 2922, "discover": 7523, "##hl": 7317, "theoretically": 22634, "spices": 21729, "feng": 19004, "sammy": 14450, "obsidian": 29042, "dna": 6064, "jumping": 8660, "drums": 3846, "##ane": 7231, "homage": 14822, "doubled": 11515, "##\u0274": 29690, "adversary": 27248, "sulfur": 17864, "##ums": 18163, "mandolin": 17687, "gillespie": 21067, "corrosion": 24625, "domination": 17882, "disaster": 7071, "##\u5343": 30310, "rover": 13631, "california": 2662, "dispersal": 27602, "average": 2779, "lauren": 10294, "stinging": 22748, "determined": 4340, "##lary": 28221, "57": 5401, "leslie": 8886, "municipality": 3250, "fritz": 12880, "1930s": 5687, "[unused54]": 55, "combinations": 14930, "surveys": 12265, "saul": 16897, "zoom": 24095, "universities": 5534, "anybody": 10334, "homogeneous": 24854, "ribs": 10335, "obtain": 6855, "inland": 9514, "[unused562]": 567, "##fighter": 20027, "brazil": 4380, "ominous": 23504, "\u0436": 1186, "anchors": 24674, "cease": 13236, "confidently": 28415, "commissioning": 21612, "atrium": 26204, "businessmen": 17353, "park": 2380, "robe": 11111, "nodded": 3368, "recognise": 17614, "288": 24841, "owning": 19273, "##ung": 5575, "ds": 16233, "insect": 14211, "rim": 11418, "strongly": 6118, "nano": 28991, "\u06af": 1305, "\u0bbe": 1395, "researching": 20059, "##ico": 11261, "meantime": 12507, "##mer": 5017, "path": 4130, "##eration": 16754, "suzuki": 14278, "zion": 19999, "attached": 4987, "seeking": 6224, "asiatic": 23983, "barnsley": 25139, "liver": 11290, "frequent": 6976, "##stead": 25647, "owing": 11427, "##toy": 29578, "1629": 27882, "siemens": 22108, "hartman": 26766, "mal": 15451, "purdue": 19749, "##\u0564": 29769, "judd": 20128, "##pe": 5051, "##ceptive": 28687, "##shah": 25611, "sorority": 27600, "[unused550]": 555, "hampson": 21780, "90": 3938, "walk": 3328, "richard": 2957, "[unused222]": 227, "underwear": 14236, "bassist": 9858, "demonstrations": 13616, "cruelty": 18186, "\u2265": 1609, "##hong": 19991, "##sbury": 18065, "paz": 18183, "##plex": 19386, "races": 3837, "required": 3223, "tall": 4206, "humorous": 14742, "veins": 9607, "##\u2193": 30114, "grin": 5861, "1923": 4927, "emergence": 14053, "##we": 8545, "females": 3801, "consult": 23363, "acute": 11325, "serves": 4240, "titanic": 20753, "\u0f51": 1428, "##\u7fa9": 30462, "whitehall": 28361, "[unused7]": 8, "use": 2224, "pasadena": 18880, "silky": 18848, "sensor": 13617, "shave": 27545, "retire": 11036, "types": 4127, "viewer": 13972, "##ball": 7384, "\u0e23": 1417, "airspace": 29357, "falcon": 11684, "display": 4653, "evident": 10358, "##59": 28154, "counterparts": 14562, "\u82f1": 1941, "ton": 10228, "##text": 18209, "##\u6d77": 30428, "##ogen": 23924, "contracted": 11016, "scattering": 17501, "nm": 13221, "motioned": 13054, "leopold": 12752, "rufus": 18316, "##st": 3367, "##cian": 14483, "accessibility": 23661, "canadian": 3010, "##aur": 21159, "germanic": 15139, "mph": 5601, "\u793a": 1923, "recapture": 27639, "epithet": 19626, "##logue": 24277, "lambda": 23375, "racing": 3868, "cognition": 26497, "##mac": 22911, "1890s": 13678, "##mond": 11442, "prohibiting": 26325, "nepal": 8222, "##uto": 16161, "wilmington": 17025, "##lick": 25230, "enrollment": 10316, "103": 9800, "major": 2350, "mughal": 17877, "identifying": 12151, "confession": 12633, "when": 2043, "viewing": 10523, "1857": 8204, "##phone": 9864, "##acies": 20499, "laboratories": 12030, "protectorate": 20394, "stalls": 19753, "rock": 2600, "composing": 16572, "compelling": 17075, "saxophonist": 19977, "eugen": 29273, "whites": 12461, "arose": 10375, "buckled": 26368, "locality": 10246, "lombard": 23441, "disposal": 13148, "##bahn": 16052, "##tyn": 25680, "inherited": 7900, "autism": 19465, "securely": 28999, "[unused195]": 200, "electrical": 5992, "parker": 6262, "##anne": 20147, "burial": 8940, "substitution": 20885, "[unused552]": 557, "dina": 26146, "twenty20": 22240, "[unused642]": 647, "filter": 11307, "translating": 22969, "fatally": 26292, "search": 3945, "colton": 21000, "##biotic": 26591, "criminal": 4735, "pearson": 12874, "replace": 5672, "coveted": 28821, "chased": 13303, "airline": 8582, "mc": 11338, "welded": 29014, "overcome": 9462, "thomson": 11161, "contests": 15795, "maria": 3814, "wired": 17502, "sense": 3168, "delivered": 5359, "simple": 3722, "199": 20713, "##arns": 23549, "##\u110a": 29998, "##lane": 20644, "arise": 13368, "questions": 3980, "[unused240]": 245, "juicy": 28900, "tag": 6415, "##oja": 22918, "stains": 27094, "recording": 3405, "misses": 22182, "perpetual": 18870, "##\u09a3": 29897, "##\u06d2": 29846, "##app": 29098, "pharmaceutical": 13859, "\u028b": 1133, "dunkirk": 29467, "ulster": 11059, "vacant": 10030, "##atz": 20501, "flanking": 24958, "address": 4769, "danielle": 18490, "principality": 18018, "soundtrack": 6050, "plots": 14811, "sampson": 22041, "\u0f60": 1433, "philology": 29286, "##44": 22932, "##lius": 15513, "barbed": 25007, "##ische": 13719, "iss": 26354, "puts": 8509, "fatal": 10611, "stairwell": 22109, "shoreline": 17721, "straps": 19702, "capcom": 26861, "saves": 13169, "1876": 7326, "regaining": 28657, "[unused770]": 775, "depicting": 10775, "wipe": 13387, "##ailing": 29544, "verve": 29230, "acclaimed": 10251, "akin": 17793, "##\u2070": 30071, "drumming": 22980, "[unused424]": 429, "##ople": 27469, "waved": 7147, "##owe": 29385, "misunderstanding": 24216, "bars": 6963, "shaping": 20300, "##sch": 11624, "context": 6123, "heroes": 7348, "robert": 2728, "facade": 8508, "scalp": 21065, "presley": 17229, "automatic": 6882, "lumber": 13891, "proctor": 28770, "printers": 23557, "shaky": 15311, "gathered": 5935, "\u65b0": 1862, "selma": 28112, "clerical": 23106, "docks": 15093, "##ois": 10054, "electorate": 13694, "benign": 28378, "lectures": 8921, "##zh": 27922, "nirvana": 26530, "##kova": 18810, "infused": 29592, "sob": 17540, "warped": 25618, "labeled": 12599, "ones": 3924, "christopher": 5696, "sixteenth": 14683, "august": 2257, "piedmont": 18873, "disciplinary": 17972, "##avs": 29553, "analogous": 19639, "##tri": 18886, "##bius": 17028, "charred": 29030, "dispatch": 18365, "effectively": 6464, "fiba": 13651, "1628": 28627, "theology": 8006, "211": 19235, "mentioning": 18625, "##\u3072": 30199, "medallion": 22541, "[unused254]": 259, "western": 2530, "bloom": 13426, "bursts": 19239, "stereo": 12991, "militants": 17671, "record": 2501, "##hur": 24572, "bottles": 11015, "pri": 26927, "aires": 9149, "##emann": 17545, "scattered": 7932, "nearly": 3053, "##oton": 25862, "processor": 13151, "corpses": 18113, "house": 2160, "radial": 15255, "aligned": 13115, "improvised": 19641, "orders": 4449, "##opus": 24676, "[unused848]": 853, "dress": 4377, "putting": 5128, "polk": 20819, "zachary": 19474, "cum": 13988, "freddie": 15528, "hanover": 14393, "reside": 13960, "##rzburg": 29136, "repair": 7192, "dealt": 9411, "plot": 5436, "spicy": 25482, "heinrich": 10952, "crate": 27297, "[unused425]": 430, "1872": 7572, "cheese": 8808, "entrepreneurs": 17633, "t": 1056, "\u0982": 1346, "lam": 16983, "##eal": 15879, "organized": 4114, "hissed": 11402, "warren": 6031, "encountered": 8567, "##lewood": 26580, "goin": 17249, "libby": 19533, "tuba": 29242, "granite": 9753, "1663": 29016, "##with": 24415, "amsterdam": 7598, "318": 27003, "##uz": 17040, "525": 25621, "measures": 5761, "##\u0636": 29827, "##guard": 18405, "##nessy": 25441, "dee": 9266, "##nden": 25915, "napoli": 29485, "school": 2082, "hatfield": 26853, "det": 20010, "pairs": 7689, "abandoned": 4704, "determining": 12515, "spirits": 8633, "jang": 23769, "booming": 24716, "thirst": 21810, "obligation": 14987, "epstein": 26646, "johann": 8968, "##jic": 25008, "610": 19827, "tickets": 9735, "1952": 3999, "##nagar": 14346, "baronetcy": 25071, "[unused737]": 742, "##sworth": 12255, "mathematical": 8045, "##cene": 17968, "airports": 13586, "cinema": 5988, "sat": 2938, "tribunal": 12152, "murderer": 13422, "##has": 14949, "extending": 8402, "lesley": 23920, "intruder": 22841, "civilized": 25825, "gesturing": 22317, "avail": 24608, "##\u03bf\u03c2": 15297, "##lights": 15733, "lai": 21110, "kin": 12631, "letting": 5599, "engine": 3194, "13": 2410, "rooms": 4734, "##bant": 29604, "##ael": 21147, "memorandum": 20336, "doubling": 19383, "amnesia": 29222, "genus": 3562, "##inated": 15833, "fashionable": 19964, "fujian": 29551, "william": 2520, "##\u1da0": 30047, "confirmation": 13964, "prince": 3159, "ri": 15544, "rebels": 8431, "unusual": 5866, "starring": 4626, "##fra": 27843, "magnus": 10045, "eng": 25540, "scott": 3660, "dwarves": 29281, "blooms": 29037, "##ch": 2818, "panted": 28149, "cleared": 5985, "implied": 13339, "boston": 3731, "##rval": 26585, "estimate": 10197, "##\u028e": 29701, "laval": 26205, "castle": 3317, "disease": 4295, "hebrew": 6836, "smoothed": 17966, "##ulo": 18845, "##ea": 5243, "yet": 2664, "\u00a7": 1073, "\u5916": 1809, "1768": 19793, "pertaining": 20246, "1016": 28707, "##sea": 17310, "##nad": 25389, "##arium": 17285, "##gizing": 28660, "##kra": 22272, "lasers": 23965, "encryption": 21999, "manuel": 7762, "##ial": 4818, "augusta": 13635, "ars": 29393, "ventures": 13252, "collect": 8145, "sly": 18230, "wardrobe": 17828, "southland": 29121, "##cede": 22119, "cecil": 11978, "\u702c": 1905, "customer": 8013, "usable": 24013, "##aj": 13006, "##kin": 4939, "scared": 6015, "jaime": 14519, "completion": 6503, "engravings": 28611, "fabricated": 24212, "maud": 21696, "##ship": 9650, "flooded": 10361, "kildare": 24275, "competed": 3879, "\u05d5": 1246, "animals": 4176, "##itor": 15660, "pyramid": 11918, "zheng": 20985, "cuckoo": 29010, "goth": 25976, "traumatic": 19686, "artwork": 8266, "kristina": 28802, "angels": 7048, "13th": 6122, "queer": 19483, "agrarian": 23226, "##weather": 28949, "pivotal": 20369, "robbie": 12289, "##\u5fc4": 30376, "overlapping": 20567, "rourke": 24400, "survey": 5002, "proper": 5372, "##games": 26393, "blaze": 15347, "tightened": 8371, "[unused260]": 265, "vacancy": 15619, "##get": 18150, "regression": 26237, "##puted": 29462, "sticking": 13423, "hawke": 24882, "fruit": 5909, "##tila": 26065, "monks": 9978, "galilee": 28928, "mojo": 28017, "##stream": 21422, "##\u30e3": 30254, "lifted": 4196, "tunisia": 13437, "##san": 8791, "broke": 3631, "craving": 26369, "\u0915": 1315, "##stov": 29473, "verse": 7893, "desired": 9059, "settled": 3876, "decades": 5109, "marxist": 15511, "false": 6270, "kata": 29354, "##ness": 2791, "professor": 2934, "##nal": 12032, "1963": 3699, "slowed": 9784, "whisper": 7204, "##az": 10936, "referencing": 28789, "302": 22060, "wheels": 7787, "compensation": 9430, "theatres": 13166, "serum": 20194, "unfair": 15571, "##neck": 18278, "##dah": 18417, "##nk": 8950, "\u304a": 1650, "forged": 16158, "irish": 3493, "##\u653f": 30386, "het": 21770, "sawmill": 24744, "ina": 27118, "nos": 16839, "wicket": 12937, "##ray": 9447, "gretchen": 21625, "samples": 8168, "scarred": 21985, "detachment": 11009, "affectionately": 28734, "##\u57ce": 30330, "merge": 13590, "instruments": 5693, "taiwanese": 16539, "accused": 5496, "staple": 18785, "tertiary": 13553, "##eers": 22862, "locals": 10575, "##\u6709": 30399, "linking": 11383, "##obe": 20891, "saudi": 8174, "escalated": 26814, "peerage": 18760, "##creen": 24410, "belongings": 20033, "documentaries": 15693, "croatia": 8097, "programming": 4730, "agatha": 23863, "withdrawal": 10534, "[unused38]": 39, "pornographic": 26932, "pound": 9044, "dull": 10634, "courtesy": 14571, "transient": 25354, "baird": 20866, "hendrix": 20645, "translated": 5421, "##\u0bc8": 29935, "##ply": 22086, "##10": 10790, "mahal": 27913, "netting": 26909, "##minated": 26972, "suite": 7621, "##jun": 19792, "inside": 2503, "journey": 4990, "nails": 10063, "gulp": 26546, "ottoman": 6188, "rocking": 14934, "pole": 6536, "1851": 8792, "hal": 11085, "rams": 13456, "stimulate": 23216, "inspections": 29589, "grover": 25242, "978": 4891, "dunn": 14145, "adultery": 29169, "steve": 3889, "##valent": 24879, "unions": 9209, "consisted": 5031, "hobart": 14005, "complaint": 12087, "constituted": 11846, "ernie": 14637, "##cious": 18436, "levant": 24485, "moss": 10636, "aaron": 7158, "affinity": 16730, "##ired": 27559, "sirens": 20675, "##ucher": 22368, "##tori": 29469, "isolation": 12477, "rotherham": 27456, "##trick": 22881, "severe": 5729, "##lone": 27165, "sai": 18952, "progressive": 6555, "\u110e": 1465, "prevent": 4652, "exterior": 8829, "lands": 4915, "[unused656]": 661, "archipelago": 13888, "421": 29403, "toni": 16525, "revolves": 19223, "portrait": 6533, "seeks": 11014, "##men": 3549, "supply": 4425, "weren": 4694, "##lates": 26786, "elder": 6422, "reforming": 29455, "xiang": 27735, "physical": 3558, "apex": 13450, "astro": 28625, "pamela": 17217, "##achi": 21046, "clermont": 27956, "\u4e00": 1740, "heaviest": 26858, "broadcasts": 8960, "[unused441]": 446, "##tr": 16344, "riverside": 12497, "[unused460]": 465, "denis": 11064, "un": 4895, "\u0f56": 1431, "singing": 4823, "interrupt": 17938, "sleeps": 25126, "##\u1102": 29992, "##zing": 6774, "decent": 11519, "##\u30cb": 30242, "\u6728": 1875, "##lman": 12624, "peacekeeping": 28364, "##rnier": 28484, "subgroup": 20576, "rave": 23289, "actor": 3364, "amnesty": 16154, "oro": 20298, "oblique": 20658, "cellular": 12562, "##most": 11800, "54": 5139, "melanie": 13286, "##eras": 24140, "background": 4281, "awesome": 12476, "[unused251]": 256, "sights": 15925, "advice": 6040, "oversight": 15709, "clothing": 5929, "4th": 4343, "boyer": 23456, "sq": 5490, "geographic": 9183, "handicapped": 26920, "physicist": 13702, "##od": 7716, "rei": 24964, "##shida": 25541, "inning": 12994, "folded": 6999, "streets": 4534, "pull": 4139, "deluxe": 15203, "goddard": 22547, "resurrected": 23053, "##\u099f": 29895, "adventures": 7357, "poe": 18922, "\u057f": 1236, "distrust": 29245, "chamberlain": 13904, "[unused966]": 971, "hardwood": 23165, "boulevard": 8459, "[unused605]": 610, "pradesh": 7970, "rudolf": 12794, "\u02bb": 1145, "##uti": 21823, "acknowledge": 13399, "ponder": 29211, "left": 2187, "abdullah": 14093, "pill": 17357, "##a": 2050, "##dia": 9032, "##cies": 9243, "munchen": 25802, "##mx": 22984, "[unused416]": 421, "354": 27878, "##drick": 24092, "stale": 26729, "##\u2030": 30065, "[unused912]": 917, "##\u209b": 30098, "##et": 3388, "##lf": 10270, "[unused599]": 604, "##inging": 23180, "modifications": 12719, "##kers": 11451, "##sher": 19603, "mountainous": 14897, "[unused723]": 728, "transformed": 8590, "cocktail": 18901, "angeles": 3349, "##hdi": 22960, "##upt": 29441, "321": 24030, "kylie": 9008, "##ana": 5162, "swallows": 26436, "novella": 20674, "##oese": 23379, "##rized": 18425, "title": 2516, "laszlo": 28226, "assignments": 14799, "\u5f35": 1844, "investigator": 14064, "96": 5986, "batted": 12822, "humboldt": 19249, "##ique": 7413, "seismic": 22630, "taxon": 28521, "assistant": 3353, "instructed": 10290, "##uki": 14228, "atomic": 9593, "protocol": 8778, "##nted": 14706, "fined": 16981, "mathias": 20494, "mold": 18282, "##ett": 6582, "depending": 5834, "kincaid": 24510, "impose": 17607, "mod": 16913, "ghosts": 11277, "happen": 4148, "cooking": 8434, "explodes": 27583, "##tonic": 25009, "browning": 18778, "succeeding": 13034, "\u03c3": 1173, "\u30e1": 1726, "\u2085": 1552, "outburst": 27719, "walked": 2939, "##hana": 15788, "harrisburg": 24569, "mode": 5549, "##cate": 16280, "creations": 20677, "hopped": 17230, "grave": 6542, "tablet": 13855, "managerial": 24465, "strikeouts": 20813, "country": 2406, "prosecuted": 21651, "cove": 11821, "quite": 3243, "decor": 25545, "implemented": 7528, "gale": 14554, "genetic": 7403, "spawn": 25645, "motionless": 19917, "manchu": 26650, "maltese": 18563, "mischief": 25166, "recurring": 10694, "brasil": 21133, "pharmacy": 13882, "suspected": 6878, "##ci": 6895, "[unused499]": 504, "advisory": 7319, "sutra": 26567, "colloquially": 23992, "soyuz": 29412, "newscast": 20306, "cologne": 10918, "##agi": 22974, "license": 6105, "halted": 12705, "faster": 5514, "##ever": 22507, "shaun": 16845, "243": 22884, "choking": 18329, "operatives": 25631, "[unused973]": 978, "tanner": 12780, "propellers": 23405, "feed": 5438, "coiled": 24599, "favourites": 28271, "panorama": 23652, "##dos": 12269, "tamara": 21772, "bloomberg": 22950, "rangers": 7181, "model": 2944, "strapped": 18019, "yelled": 7581, "matrices": 21520, "##aves": 21055, "knob": 16859, "helene": 20149, "acceptable": 11701, "##sum": 17421, "fairchild": 24258, "##nton": 15104, "##ager": 17325, "memorabilia": 28663, "1812": 9842, "##ila": 11733, "hyde": 11804, "citing": 8951, "enforcement": 7285, "musee": 18070, "hooked": 13322, "yemen": 13968, "\u09b8": 1376, "dire": 18704, "diocesan": 18680, "sincere": 18006, "rubber": 8903, "traitor": 17328, "235": 17825, "emerge": 12636, "vertices": 18984, "early": 2220, "recognizable": 20123, "quicker": 19059, "endorsed": 11763, "savanna": 22323, "psyche": 25774, "incorrect": 16542, "[unused673]": 678, "recruitment": 15680, "meredith": 10635, "probable": 15596, "##lich": 18337, "seafood": 23621, "##using": 18161, "brno": 28634, "##0": 2692, "preschool": 23655, "lola": 15137, "##sions": 27466, "crotch": 28629, "consecrated": 12299, "highlands": 11784, "howling": 22298, "joked": 19700, "intend": 13566, "splendid": 21459, "hinted": 21795, "##poo": 24667, "##ntes": 17340, "matthew": 5487, "rory": 14285, "##\u0442": 22919, "swinging": 11820, "track": 2650, "ambassadors": 20986, "blunt": 14969, "##\u8033": 30463, "enrichment": 27226, "purported": 27023, "aix": 28443, "##opers": 27342, "allies": 6956, "forge": 15681, "party": 2283, "another": 2178, "bilbao": 25427, "margot": 29210, "iona": 22347, "dusseldorf": 18160, "vane": 23334, "rewards": 19054, "1644": 23477, "520": 19611, "03": 6021, "ge": 16216, "dependence": 18642, "bitten": 19026, "hugely": 27564, "trails": 9612, "\u98a8": 1977, "characterised": 17253, "blinded": 20641, "bother": 8572, "florian": 29517, "proceeds": 10951, "threatened": 5561, "princess": 4615, "hideout": 29588, "downstairs": 10025, "pl": 20228, "boomed": 28908, "just": 2074, "antwerp": 14003, "##hri": 26378, "bravo": 17562, "prompting": 15870, "prey": 8336, "streaked": 21276, "cradle": 18293, "##onate": 21149, "arched": 9194, "mated": 28795, "gave": 2435, "##vic": 7903, "library": 3075, "##\u308b": 30213, "dealing": 7149, "##tion": 3508, "intern": 25204, "pine": 7222, "abuse": 6905, "guest": 4113, "analyze": 17908, "17th": 5550, "700": 6352, "[unused520]": 525, "##icative": 25184, "##copic": 26461, "arizona": 5334, "nationality": 10662, "spilling": 18054, "possession": 6664, "google": 8224, "freelance": 15919, "driver": 4062, "mating": 15100, "##\u211d": 30107, "undo": 25672, "rip": 10973, "hitchcock": 19625, "ensembles": 21528, "decisive": 13079, "##\u266d": 24102, "biochemistry": 22419, "configured": 26928, "mhz": 11413, "severely": 8949, "translations": 11913, "ronnie": 11688, "disturb": 22995, "alter": 11477, "##church": 22743, "mammoth": 23714, "##ont": 12162, "##rked": 19849, "splashed": 22055, "stuck": 5881, "lamar": 19756, "requiem": 21199, "cai": 29080, "costing": 22173, "berber": 27514, "\u0935": 1335, "fred": 5965, "interfere": 15115, "rough": 5931, "stronghold": 16995, "laughter": 7239, "52": 4720, "messengers": 28938, "persia": 16667, "collingwood": 20044, "##ryl": 23320, "arabia": 9264, "snuck": 24492, "refueling": 23026, "ledger": 27106, "undisclosed": 18206, "leap": 11679, "pants": 6471, "asylum": 11386, "prosecution": 11537, "##elman": 23830, "[unused543]": 548, "70th": 26934, "dental": 11394, "consonant": 18265, "abdomen": 13878, "trolls": 27980, "vintage": 13528, "authority": 3691, "ticket": 7281, "towering": 20314, "reuters": 26665, "[unused140]": 145, "seen": 2464, "shooter": 13108, "##\u0627\u0646": 18511, "convection": 23849, "slid": 4934, "defected": 26330, "spire": 19823, "fighting": 3554, "indictment": 24265, "spots": 7516, "thinkers": 24762, "conducted": 4146, "watches": 12197, "patron": 9161, "guineas": 22385, "##\u043b": 29436, "concord": 16557, "agnes": 11166, "##hid": 27511, "\u5065": 1768, "shorter": 7820, "goes": 3632, "theory": 3399, "##use": 8557, "[unused272]": 277, "ramirez": 15206, "officially": 3985, "moan": 13673, "resort": 7001, "##tura": 27431, "##far": 14971, "shipping": 7829, "##sy": 6508, "battalion": 4123, "managing": 6605, "[unused791]": 796, "##etched": 29574, "rig": 19838, "##rford": 26430, "##rrick": 24999, "##ncia": 22750, "bless": 19994, "pace": 6393, "grimm": 24287, "colon": 16844, "yan": 13619, "experiences": 6322, "##\u092e": 29867, "aren": 4995, "pigs": 14695, "regulated": 12222, "##hd": 14945, "kiss": 3610, "leeds": 7873, "yielded": 17544, "latin": 3763, "summit": 6465, "infections": 15245, "sera": 26358, "location": 3295, "servicing": 26804, "bangladesh": 7269, "whitman": 21311, "torture": 8639, "korea": 4420, "##lp": 14277, "innsbruck": 28914, "##sai": 15816, "plaza": 8232, "brad": 8226, "\u00ab": 1077, "##ck": 3600, "witch": 6965, "always": 2467, "##\u2033": 30067, "##itz": 8838, "attention": 3086, "landlord": 18196, "yankee": 17652, "##drich": 23335, "##pone": 29513, "##yr": 12541, "\u209c": 1571, "le": 3393, "component": 6922, "dl": 21469, "clubhouse": 22067, "jelly": 20919, "##erie": 17378, "\u30cb": 1716, "programmer": 20273, "camouflage": 21356, "coping": 27520, "##ibility": 13464, "mini": 7163, "funk": 11962, "completes": 28123, "[unused436]": 441, "newsletter": 17178, "ideas": 4784, "[unused721]": 726, "subsequent": 4745, "##*": 29621, "[unused34]": 35, "pittsburgh": 6278, "protests": 8090, "interval": 13483, "kira": 15163, "showers": 23442, "kits": 18628, "narrows": 25142, "signing": 6608, "sculptor": 10160, "[unused948]": 953, "[unused400]": 405, "##ult": 11314, "##rdes": 26371, "phrases": 15672, "edwin": 10049, "biographies": 22056, "gripped": 9672, "desk": 4624, "unitary": 22127, "totaled": 23596, "##usia": 24118, "martin": 3235, "ostensibly": 23734, "coldly": 24745, "woodlands": 19268, "fuzzy": 18001, "commando": 15054, "tasha": 25448, "empathy": 26452, "fifteenth": 16249, "##oped": 24174, "##hara": 11077, "noted": 3264, "ct": 14931, "##iam": 25107, "##chfield": 22693, "31": 2861, "entrances": 18084, "dar": 18243, "##rza": 24175, "maurice": 7994, "cameo": 12081, "tessa": 13167, "accusation": 19238, "##\u2295": 30139, "regan": 16964, "usage": 8192, "##wr": 13088, "political": 2576, "nestor": 25397, "##bit": 16313, "poses": 22382, "harmless": 19741, "nak": 17823, "dominance": 13811, "raf": 7148, "numbering": 15200, "stills": 26105, "poland": 3735, "certification": 10618, "abbot": 11428, "myanmar": 12620, "punching": 19477, "grouping": 19765, "arab": 5424, "##\u044d": 29756, "terminates": 28790, "customized": 28749, "republic": 3072, "\u4eac": 1755, "##ures": 14900, "pneumonia": 18583, "grounded": 16764, "##kow": 24144, "reservation": 11079, "atmospheric": 12483, "##nco": 15305, "[unused986]": 991, "tumor": 13656, "grasp": 10616, "zhu": 15503, "##\u5e78": 30367, "hong": 4291, "##vious": 24918, "##iac": 20469, "wondered": 4999, "fades": 26784, "prussian": 10734, "diagnosis": 11616, "ben": 3841, "flock": 19311, "euro": 9944, "halo": 17201, "mainline": 20575, "identify": 6709, "revived": 10570, "##ence": 10127, "clears": 28837, "##lion": 18964, "##net": 7159, "lennon": 14294, "##\u535a": 30312, "\u0e01": 1409, "doctorate": 8972, "bourgeois": 22846, "##logist": 10727, "huffed": 25014, "\u03bf": 1169, "\u0251": 1110, "illness": 7355, "alexandria": 10297, "ethiopia": 11154, "##gnant": 27881, "kicking": 10209, "kerman": 24500, "##\u03c9": 29739, "94": 6365, "symphony": 6189, "dear": 6203, "##ry": 2854, "prodigy": 28334, "hunters": 9624, "psychedelic": 18147, "armoured": 11104, "##rita": 17728, "featherweight": 27145, "coyotes": 26880, "irving": 12415, "[unused720]": 725, "horatio": 27752, "relate": 14396, "spikes": 19547, "loaded": 8209, "amy": 6864, "che": 18178, "recommend": 16755, "1690": 24765, "crashing": 12894, "edwards": 7380, "blanche": 18158, "concentrations": 14061, "vilnius": 20513, "334": 29562, "ahmad": 10781, "abyss": 22159, "dripped": 22526, "##ue": 5657, "storm": 4040, "valet": 27238, "##\u062d": 29820, "##asa": 16782, "##\u091f": 29856, "cosmetics": 25381, "##gler": 17420, "##rson": 17753, "##\u03b8": 29725, "towing": 28379, "daughter": 2684, "tolerance": 13986, "patel": 20455, "became": 2150, "demos": 18267, "\u20b9": 1576, "man": 2158, "bumped": 19030, "corp": 13058, "nurses": 11500, "[unused825]": 830, "##ema": 14545, "##log": 21197, "1718": 26995, "sitcom": 13130, "lip": 5423, "serviced": 22858, "meath": 26856, "1897": 6347, "##tad": 17713, "westminster": 9434, "1720": 23535, "maximilian": 18838, "##bial": 21102, "wits": 25433, "clouded": 26761, "class": 2465, "notwithstanding": 26206, "strong": 2844, "##gb": 18259, "armored": 10612, "##may": 27871, "ballad": 11571, "tolerate": 19242, "##tidae": 21861, "commentary": 8570, "devout": 26092, "satisfy": 13225, "cheating": 16789, "[unused780]": 785, "1620": 24259, "classroom": 9823, "rita": 11620, "\u2015": 1518, "narcotics": 27290, "##nail": 25464, "punch": 8595, "quietly": 5168, "dismiss": 19776, "tobago": 17247, "pinnacle": 26007, "triad": 25355, "##shu": 14235, "ems": 29031, "installation": 8272, "predict": 16014, "\u266f": 1628, "socio": 17522, "vaguely": 15221, "credits": 6495, "modernist": 19770, "regard": 7634, "##\u043e\u0432": 19259, "approaching": 8455, "studios": 4835, "##torm": 20654, "##frid": 27439, "##lma": 19145, "promoting": 7694, "smallpox": 25765, "##oco": 24163, "loyalty": 9721, "fidelity": 22625, "read": 3191, "hill": 2940, "ascribed": 28025, "platforms": 7248, "##uddin": 17375, "confronting": 26964, "examined": 8920, "congenital": 27480, "1922": 4798, "launcher": 22742, "##tao": 28555, "canceled": 13261, "##rdy": 17460, "retaliation": 18695, "cocky": 24995, "beaufort": 23622, "mutants": 23892, "constrained": 27570, "applicants": 17362, "presents": 7534, "thug": 26599, "##gc": 18195, "dragged": 7944, "lowry": 27281, "answering": 10739, "continual": 27222, "1939": 3912, "##wana": 21761, "jealousy": 14225, "[unused307]": 312, "##tosis": 25950, "##oked": 23461, "executions": 22679, "specialists": 15744, "educated": 5161, "##imate": 21499, "##game": 16650, "drip": 27304, "jamal": 24132, "strict": 9384, "guadalupe": 23529, "whatsoever": 18971, "[unused924]": 929, "founders": 8759, "mechanically": 27846, "\u307f": 1678, "##lay": 8485, "secular": 10644, "castes": 26254, "whoa": 23281, "kumar": 9600, "operas": 14281, "featuring": 3794, "special": 2569, "##\u093e": 29876, "emphasize": 17902, "##codes": 23237, "pinto": 25066, "##duction": 16256, "waist": 5808, "meng": 27955, "1954": 4051, "neo": 9253, "haifa": 21303, "2019": 10476, "romeo": 12390, "brush": 8248, "mariners": 18049, "spokesperson": 15974, "songwriter": 6009, "flights": 7599, "sincerity": 23997, "preserves": 18536, "##taking": 17904, "1580": 28278, "tender": 8616, "horseshoe": 23449, "1902": 5774, "madam": 21658, "##ular": 7934, "frankish": 26165, "helpless": 13346, "1724": 26423, "straightened": 11168, "166": 18610, "places": 3182, "##sl": 14540, "philippines": 5137, "cortex": 17132, "forbid": 27206, "##\u2091": 30090, "jerk": 12181, "##ot": 4140, "dew": 24903, "tread": 29449, "switches": 15924, "##\u3080": 30205, "##\u0430\u043d": 28995, "season": 2161, "railway": 2737, "##36": 21619, "gloucestershire": 15905, "residency": 14079, "naval": 3987, "gum": 16031, "osborn": 26999, "##gaard": 18839, "sidewalks": 28386, "##jia": 26541, "boar": 24187, "willy": 16172, "##\uff0f": 30518, "appearances": 3922, "reminded": 6966, "futsal": 21921, "coloured": 11401, "tingling": 23690, "boiling": 16018, "wellesley": 25658, "##analysis": 25902, "##nett": 15361, "remarkably": 17431, "their": 2037, "samson": 18375, "hostile": 10420, "{": 1063, "##\u3089": 30211, "##ect": 22471, "mentor": 10779, "nic": 27969, "sip": 10668, "destroys": 20735, "beaver": 13570, "messed": 18358, "exited": 15284, "prc": 26141, "##gan": 5289, "latham": 28737, "distribution": 4353, "grass": 5568, "toppled": 27251, "whitehead": 23257, "vans": 21994, "##istic": 6553, "dagger": 10794, "assistants": 16838, "navigate": 22149, "##iga": 13340, "destroy": 6033, "fling": 27655, "turks": 12896, "systematically": 23087, "differential": 11658, "indies": 9429, "buffy": 18467, "simulator": 25837, "societies": 8384, "cannabis": 17985, "divides": 20487, "landing": 4899, "\u30ce": 1717, "restrictions": 9259, "paper": 3259, "confesses": 22826, "##llins": 26655, "monopoly": 15404, "##xley": 20959, "##lova": 24221, "tied": 5079, "griffin": 9258, "wisconsin": 5273, "estates": 8707, "[unused188]": 193, "dawson": 11026, "hispanic": 6696, "shitty": 28543, "##mounted": 27632, "##rgen": 25892, "apologize": 12134, "faso": 22773, "lakers": 18264, "ruined": 9868, "[unused793]": 798, "\u0bb5": 1394, "terrain": 9291, "severity": 18976, "romance": 7472, "downloads": 22956, "##\u0153": 29674, "##fast": 24333, "door": 2341, "##er": 2121, "\u09a6": 1364, "characteristic": 8281, "iraq": 5712, "[unused105]": 110, "pasha": 14292, "scan": 13594, "glaciers": 21193, "##dp": 18927, "magnate": 27470, "corrected": 13371, "molly": 9618, "finley": 29194, "drill": 12913, "stout": 18890, "##open": 26915, "##uid": 21272, "bob": 3960, "carousel": 27628, "congregations": 16850, "intro": 17174, "replaces": 20736, "splitting": 14541, "rebellious": 22614, "sonar": 24609, "[unused945]": 950, "forbade": 27315, "1940": 3878, "microsoft": 7513, "munoz": 23685, "laptop": 12191, "wan": 14071, "winner": 3453, "rockies": 22366, "risked": 22374, "ecuador": 10378, "livery": 18475, "eponymous": 15248, "randall": 12813, "36th": 21460, "beaten": 7854, "subsided": 26588, "floppy": 28491, "##\u6211": 30381, "##resh": 21898, "effects": 3896, "highlanders": 22672, "[unused153]": 158, "publicized": 24928, "notorious": 12536, "ends": 4515, "##cade": 21869, "390": 20024, "fungi": 15289, "alive": 4142, "farrell": 16248, "clenched": 8555, "perform": 4685, "knocks": 21145, "1976": 3299, "vidal": 29259, "[unused536]": 541, "##bot": 18384, "##vey": 12417, "volleyball": 7454, "##zcz": 29419, "erin": 11781, "##cating": 18252, "##tical": 14656, "bankrupt": 17482, "header": 20346, "experiments": 7885, "##gh": 5603, "##ola": 6030, "sigismund": 26748, "nonstop": 25493, "hilt": 21184, "uruguayan": 23464, "##gol": 24141, "concerned": 4986, "madagascar": 11934, "##turn": 22299, "##usly": 27191, "fleming": 13779, "##charged": 22620, "akbar": 20730, "smiled": 3281, "resolve": 10663, "genome": 13458, "float": 14257, "##rick": 11285, "maybe": 2672, "reacting": 24868, "occupations": 23374, "percussion": 6333, "lobbying": 19670, "restraints": 28054, "wryly": 28325, "spear": 12341, "vienna": 6004, "spawned": 18379, "beliefs": 9029, "[unused746]": 751, "53": 5187, "isaiah": 18850, "armed": 4273, "craters": 27561, "fracture": 19583, "mergers": 28585, "pensacola": 26073, "1754": 22593, "inclusion": 10502, "contributes": 16605, "altar": 9216, "slogan": 14558, "voyage": 8774, "##\u045b": 29764, "\u0649": 1299, "disks": 23999, "minimum": 6263, "##\u116f": 30015, "##rio": 9488, "vfl": 13480, "attractions": 13051, "intensely": 20531, "##\u2012": 30050, "mai": 14736, "bar": 3347, "weaver": 14077, "carla": 17081, "candidates": 5347, "duff": 21019, "enrolled": 8302, "##\u5c71": 30357, "prescott": 20719, "##dson": 25112, "wrenched": 26971, "gates": 6733, "pacing": 15732, "gorilla": 23526, "serbs": 16757, "##fb": 26337, "fails": 11896, "monuments": 10490, "##\u0995": 29889, "almost": 2471, "insight": 12369, "exclusion": 15945, "lucia": 12337, "stung": 19280, "employing": 15440, "mongolia": 13906, "trains": 4499, "1948": 3882, "##fixed": 23901, "rhythms": 17900, "chests": 28717, "horrified": 14603, "##athlon": 17563, "breaks": 7807, "chloride": 19057, "##ffled": 28579, "wildcats": 19495, "scheduled": 5115, "sweater": 14329, "\u093f": 1341, "performing": 4488, "taken": 2579, "\u30af": 1702, "occupational": 16928, "rendered": 10155, "##<": 29629, "##200": 28332, "##\u0584": 29786, "condition": 4650, "fellow": 3507, "\u6c37": 1895, "funding": 4804, "jean": 3744, "##ili": 18622, "dracula": 18500, "malaysian": 11843, "humble": 15716, "investors": 9387, "midnight": 7090, "reacher": 22970, "jimenez": 22790, "meritorious": 22053, "naive": 15743, "##lus": 7393, "yoga": 13272, "161": 17365, "reserve": 3914, "bravery": 16534, "dreamed": 13830, "valuation": 26004, "banco": 28678, "gases": 15865, "\u0d9a": 1403, "scholarship": 6566, "gradually": 6360, "upgraded": 9725, "rendering": 14259, "discontent": 27648, "##9": 2683, "##\u22121": 27944, "power": 2373, "taunton": 28181, "ee": 25212, "pantry": 27796, "slipped": 5707, "boarded": 17383, "elf": 17163, "##19": 16147, "eggs": 6763, "appendix": 22524, "pushing": 6183, "curving": 21439, "##bi": 5638, "cambrian": 29228, "##hing": 12053, "bodily": 20445, "mimi": 20705, "##dating": 16616, "##spar": 27694, "fore": 18921, "1736": 28192, "touching": 7244, "arabian": 13771, "above": 2682, "experiencing": 13417, "person": 2711, "[unused242]": 247, "##icia": 24108, "\u6210": 1854, "bonus": 6781, "fishes": 21995, "arrests": 17615, "\u056b": 1225, "labyrinth": 24239, "munich": 7469, "donnelly": 28317, "##\u00a4": 29647, "russia": 3607, "yanking": 25716, "##yed": 20821, "[unused120]": 125, "##tina": 13770, "price": 3976, "represented": 3421, "##abas": 27537, "##inton": 27028, "movies": 5691, "packed": 8966, "specifies": 27171, "magnet": 16853, "spaceship": 25516, "clifton": 16271, "underground": 5230, "tenant": 16713, "bassett": 28303, "[unused620]": 625, "##\u3046": 30174, "sneaking": 20727, "dissolution": 12275, "##mann": 5804, "calculated": 10174, "##pled": 21132, "buchanan": 14349, "##worthy": 13966, "1828": 11517, "##gating": 16961, "revue": 17480, "talmud": 24380, "checking": 9361, "laugh": 4756, "botany": 17018, "unleashed": 22416, "lingered": 17645, "##ridge": 9438, "##si": 5332, "##rg": 10623, "##note": 22074, "rob": 6487, "created": 2580, "olaf": 20514, "\u099c": 1358, "[unused734]": 739, "midtown": 27219, "##away": 9497, "##cci": 14693, "uc": 15384, "ru": 21766, "qualifying": 6042, "wills": 17234, "##lett": 20897, "depiction": 15921, "rick": 6174, "obeyed": 22665, "##jos": 19929, "283": 25504, "##lah": 14431, "##emia": 17577, "dams": 17278, "constabulary": 23791, "deacon": 14845, "[unused16]": 17, "quinn": 8804, "\u09c7": 1381, "pond": 8644, "cosmetic": 25536, "slavery": 8864, "addiction": 13449, "spa": 12403, "\u00b0f": 8157, "eastman": 24252, "##oll": 14511, "orthodox": 6244, "linnaeus": 21610, "grid": 8370, "spring": 3500, "including": 2164, "horsemen": 25431, "references": 7604, "maternity": 23676, "symbolic": 12613, "coconut": 16027, "differences": 5966, "elena": 9060, "argyll": 27365, "leto": 24543, "tee": 17170, "thrusting": 21468, "mosque": 8806, "245": 21005, "hugs": 24459, "toad": 21344, "requesting": 17942, "stemming": 29217, "convinces": 19480, "jazz": 4166, "peered": 10757, "violating": 20084, "edna": 21051, "##mide": 24284, "##tric": 12412, "iran": 4238, "mazda": 25286, "dom": 14383, "opposed": 4941, "mckinley": 22121, "laps": 10876, "newborn": 20662, "senators": 10153, "damaging": 15011, "patrols": 14703, "##iche": 17322, "wb": 25610, "stood": 2768, "[unused160]": 165, "expand": 7818, "\u0f58": 1432, "tangled": 14170, "auxiliary": 9830, "\u092c": 1329, "##ffe": 16020, "memory": 3638, "reign": 5853, "vietnam": 5148, "stillness": 29435, "##hunter": 25629, "annoying": 15703, "chilean": 12091, "terribly": 16668, "salazar": 25315, "jumps": 14523, "sussex": 9503, "\u826f": 1938, "creating": 4526, "squares": 14320, "\u201a": 1522, "##iver": 16402, "swollen": 13408, "163": 17867, "peg": 25039, "##dents": 28986, "stench": 21555, "##rah": 10404, "rigid": 11841, "taxpayer": 26980, "##fia": 22749, "[unused921]": 926, "task": 4708, "caitlin": 27555, "fat": 6638, "##ress": 8303, "##llie": 23697, "[unused904]": 909, "screwing": 29082, "formations": 13197, "[unused678]": 683, "primary": 3078, "elevator": 7764, "tracked": 12808, "coastline": 15458, "airport": 3199, "welding": 23604, "specifically": 4919, "enhance": 11598, "europeans": 13481, "prentice": 23429, "african": 3060, "##ij": 28418, "protestants": 19592, "1818": 12094, "broadcaster": 11995, "dust": 6497, "molina": 25601, "##via": 9035, "##dorff": 26559, "[unused762]": 767, "dropped": 3333, "lexi": 16105, "sacked": 14159, "##psy": 18075, "circumstance": 25652, "roast": 25043, "intrinsic": 23807, "nunez": 28454, "##yman": 17906, "outlaws": 23107, "##\u00f7": 29669, "gold": 2751, "ceramic": 14692, "diseases": 7870, "##nberger": 28825, "holy": 4151, "recover": 8980, "glee": 18874, "lieu": 22470, "masterpiece": 17743, "schneider": 15159, "fernando": 9158, "navarre": 21260, "lending": 18435, "\u110a": 1462, "sunni": 18883, "[unused936]": 941, "otherwise": 4728, "resign": 12897, "muslims": 7486, "##itia": 29050, "##qual": 26426, "forgotten": 6404, "[unused876]": 881, "kali": 19924, "[unused340]": 345, "ridge": 5526, "measurement": 10903, "deprived": 17676, "stylized": 19551, "multicultural": 27135, "1b": 26314, "union": 2586, "fuel": 4762, "brilliance": 28850, "##rik": 15564, "duke": 3804, "confrontation": 13111, "commodore": 12957, "hit": 2718, "##sf": 22747, "wat": 28194, "[unused269]": 274, "##yson": 25385, "fear": 3571, "traced": 9551, "closed": 2701, "amounted": 18779, "credible": 23411, "defunct": 11984, "galerie": 17941, "##eli": 20806, "##\u0baf": 29926, "twitched": 16767, "kidney": 14234, "trombone": 13914, "words": 2616, "milne": 24377, "counterattack": 27835, "##gingly": 28392, "##db": 18939, "belle": 9852, "profession": 9518, "1658": 28944, "joanna": 15730, "\u30aa": 1699, "downward": 14047, "disrupted": 20275, "cups": 10268, "255": 20637, "supervising": 21238, "marquis": 13410, "##kle": 19099, "[unused700]": 705, "yesterday": 7483, "950": 20317, "##gold": 21270, "icelandic": 14024, "emperors": 19655, "specimens": 9908, "seeing": 3773, "##\u793a": 30449, "speechless": 25146, "donate": 21357, "nepali": 23418, "counts": 9294, "##lving": 25780, "transported": 9687, "maintenance": 6032, "landfall": 21042, "##yar": 13380, "proprietor": 21584, "[unused812]": 817, "candle": 13541, "restored": 5854, "[unused316]": 321, "includes": 2950, "bengali": 11267, "##\u30eb": 30259, "##thesis": 25078, "provence": 19923, "rejoin": 25261, "manga": 8952, "borders": 6645, "sale": 5096, "bloomfield": 25584, "editor": 3559, "rein": 27788, "##\u305f": 30187, "martyrs": 18945, "zombies": 14106, "citizenship": 9068, "decreed": 28447, "##zee": 23940, "instructor": 9450, "conserved": 19995, "##!": 29612, "##lander": 22691, "confirm": 12210, "collier": 20466, "day": 2154, "eroded": 23300, "tavi": 24283, "##\u90fd": 30487, "jacques": 7445, "##za": 4143, "[unused62]": 63, "##cured": 19405, "jin": 9743, "marshal": 8610, "maru": 26280, "lyrical": 16376, "rounded": 8352, "replies": 14054, "noticeably": 25327, "along": 2247, "diving": 9404, "prescribed": 16250, "helix": 25743, "nato": 10079, "offspring": 13195, "1997": 2722, "panchayat": 20079, "clark": 5215, "gods": 5932, "dense": 9742, "##ginal": 24965, "rbi": 16929, "voodoo": 21768, "##leaf": 19213, "dryly": 20825, "shrieked": 22383, "resistance": 5012, "\u11a8": 1484, "textiles": 18762, "##uno": 27819, "lund": 21860, "acheron": 21427, "rat": 9350, "statistical": 7778, "historian": 5272, "piccolo": 29368, "airlift": 20019, "mail": 5653, "playing": 2652, "##sis": 6190, "\u0280": 1127, "##graphs": 27341, "starving": 18025, "summon": 18654, "beans": 13435, "katharine": 25739, "[unused124]": 129, "1864": 6717, "##lved": 26832, "woo": 15854, "incorporated": 5100, "connecticut": 6117, "##lley": 25105, "cactus": 23265, "pretending": 12097, "exclaimed": 12713, "blaine": 20002, "hurling": 10839, "maureen": 19167, "havre": 28890, "##lices": 29146, "mitchell": 6395, "seeker": 29444, "##dden": 17101, "##\u063a": 29831, "ronan": 18633, "##\u8c9d": 30478, "shapiro": 24630, "paddington": 26318, "##ection": 18491, "##tan": 5794, "rocket": 7596, "blinds": 28279, "mein": 24182, "banking": 8169, "concurrent": 16483, "1951": 4131, "07": 5718, "##para": 28689, "nakamura": 23981, "nebula": 25677, "##yde": 18124, "awhile": 19511, "inverness": 22937, "[unused713]": 718, "suns": 19352, "thierry": 26413, "upside": 14961, "was": 2001, "bought": 4149, "allergic": 27395, "##\u00bf": 29666, "zoo": 9201, "archdeacon": 21742, "swami": 20087, "##hu": 6979, "nikita": 29106, "[unused485]": 490, "extracts": 27059, "1919": 4529, "heaved": 19970, "christian": 3017, "ortega": 25859, "chart": 3673, "memoir": 12558, "\u09b2": 1373, "##polis": 17699, "\u211d": 1579, "corpse": 11547, "mendez": 28950, "[unused196]": 201, "wiley": 18825, "auditor": 20964, "end": 2203, "serve": 3710, "confront": 14323, "charley": 20430, "r": 1054, "airplay": 15341, "closure": 8503, "sigh": 6682, "parasitic": 26045, "warships": 15964, "[unused98]": 99, "nodes": 14164, "placement": 11073, "toilet": 11848, "triassic": 29529, "bowman": 19298, "xvi": 16855, "frederic": 15296, "promotion": 4712, "snarled": 15022, "[unused437]": 442, "intensive": 11806, "\u043a": 1189, "[unused694]": 699, "jurassic": 19996, "succumbed": 25642, "struggled": 6915, "factory": 4713, "minnesota": 5135, "bingo": 27137, "73": 6421, "traces": 10279, "is": 2003, "puzzle": 11989, "34th": 20460, "chiang": 17684, "\u9547": 1966, "sparrow": 19479, "##bbe": 19473, "cleaner": 20133, "eighteenth": 12965, "exploration": 8993, "virginity": 26970, "renowned": 8228, "p": 1052, "accredited": 11459, "legitimacy": 22568, "alarms": 29034, "tianjin": 26216, "then": 2059, "splinter": 27546, "literary": 4706, "##\u09c0": 29916, "[unused591]": 596, "owned": 3079, "destined": 16036, "##dler": 21222, "elliot": 11759, "intervened": 21116, "##nza": 16786, "##bution": 29446, "satisfied": 8510, "doctrines": 23252, "blessed": 10190, "##ova": 7103, "likewise": 10655, "aziz": 21196, "astonished": 22741, "unemployed": 18787, "govern": 21208, "##dit": 23194, "tourism": 6813, "[unused749]": 754, "unusually": 12890, "##jean": 27687, "slow": 4030, "aspirations": 22877, "spared": 16891, "##na": 2532, "litres": 25783, "\u2018": 1520, "brooding": 28902, "voluntarily": 17912, "mia": 8764, "\u0e25": 1418, "arbitration": 18010, "knotted": 27039, "cousins": 12334, "retrieval": 26384, "[unused888]": 893, "unharmed": 28150, "hike": 21857, "##forth": 15628, "strengthening": 16003, "fi": 10882, "extra": 4469, "detonated": 28110, "eh": 15501, "43rd": 25747, "synthesizer": 13564, "[unused595]": 600, "bradley": 8981, "theta": 23963, "buena": 27493, "breathe": 7200, "pasta": 24857, "mattered": 13836, "##its": 12762, "peculiar": 14099, "alfredo": 19423, "tanks": 7286, "##\u2044": 30070, "benjamin": 6425, "##mined": 25089, "shocking": 16880, "bam": 25307, "wilton": 26407, "##oned": 17799, "um": 8529, "percentage": 7017, "norwood": 22804, "cr": 13675, "bulging": 27569, "chief": 2708, "barcelona": 7623, "suicidal": 26094, "##rle": 20927, "##river": 24352, "flinched": 19201, "##hr": 8093, "carol": 8594, "freshmen": 26612, "##lassified": 24938, "roderick": 28326, "residue": 21755, "eclipse": 13232, "##nath": 16207, "sentenced": 7331, "\u043b": 1190, "devin": 23601, "torpedoes": 18544, "##rger": 25858, "ornamental": 18200, "nikola": 24794, "and": 1998, "swans": 26699, "grim": 11844, "baha": 13253, "[unused104]": 109, "arroyo": 23882, "assumption": 11213, "thirties": 26313, "described": 2649, "##fell": 23510, "arranger": 13981, "sax": 19656, "objection": 22224, "dominican": 10104, "distinctions": 25995, "quickly": 2855, "vicki": 25424, "##co": 3597, "tiny": 4714, "denote": 19090, "adjust": 14171, "##ucci": 16835, "transportation": 5193, "hotels": 9275, "hancock": 13849, "bp": 17531, "bewildered": 24683, "oblast": 10379, "objections": 17304, "1752": 24736, "patient": 5776, "guadalajara": 22887, "halves": 23672, "colts": 14390, "require": 5478, "\u0459": 1215, "mukherjee": 27040, "col": 8902, "conductors": 23396, "mysteriously": 29239, "enzo": 26218, "\u91cc": 1962, "alarmed": 19260, "consolidate": 24939, "##4th": 26724, "hunted": 14682, "discretion": 19258, "colleen": 28385, "fallen": 5357, "shivering": 19197, "90s": 17233, "##tle": 9286, "\u10dd": 1450, "clicks": 29225, "habitat": 6552, "slalom": 19617, "joker": 19318, "ducks": 14875, "ludwig": 10302, "david": 2585, "##vant": 18941, "transformers": 19081, "stepfather": 21481, "pursued": 9505, "receptors": 13833, "satellites": 14549, "eki": 23174, "ciudad": 20759, "universite": 22176, "nelson": 5912, "reform": 5290, "##ogan": 21131, "##age": 4270, "variant": 8349, "compact": 9233, "[unused349]": 354, "owners": 5608, "milky": 21582, "sabrina": 21876, "methodist": 8938, "unveiled": 11521, "disapproval": 21406, "clues": 15774, "landfill": 28382, "frigates": 22833, "gabe": 12900, "##fect": 25969, "##urable": 23086, "tailed": 14578, "looted": 27775, "conclusion": 7091, "cornwall": 10387, "event": 2724, "buick": 28865, "nearby": 3518, "finding": 4531, "hon": 10189, "[unused428]": 433, "##watch": 18866, "compatible": 11892, "middletown": 28747, "affect": 7461, "##imeter": 19198, "morally": 28980, "activation": 13791, "populations": 7080, "\u4e4b": 1749, "paralysis": 26287, "northeastern": 8763, "cigar": 19135, "asshole": 22052, "bryce": 19757, "##\u1d57": 30041, "brighton": 10309, "incurred": 22667, "##\u2075": 30074, "notion": 9366, "phil": 6316, "intersections": 26540, "cleaned": 12176, "massey": 21402, "partner": 4256, "evenings": 16241, "hyun": 21108, "fontaine": 25749, "##urse": 28393, "miller": 4679, "mansion": 7330, "progression": 14967, "jen": 15419, "close": 2485, "dunedin": 22020, "robes": 17925, "bush": 5747, "twinkle": 29038, "poker": 11662, "*": 1008, "novice": 23131, "yacht": 12187, "instant": 7107, "substitute": 7681, "##gm": 21693, "balloons": 22163, "desirable": 16166, "cent": 9358, "matrix": 8185, "orleans": 5979, "##rte": 19731, "appearance": 3311, "captured": 4110, "##ing": 2075, "handheld": 27291, "charcoal": 18872, "##r": 2099, "tract": 12859, "damage": 4053, "dilemma": 21883, "amused": 11770, "##ience": 13684, "##bury": 4917, "hesitant": 20221, "[unused370]": 375, "[unused95]": 96, "reflex": 22259, "adventist": 25696, "tres": 24403, "elaine": 15263, "dumping": 23642, "177": 18118, "##mack": 26945, "##ren": 7389, "monsters": 9219, "pearl": 7247, "ps": 8827, "dubious": 22917, "perch": 21836, "coe": 24873, "\u03c8": 1178, "##\u099b": 29893, "maturity": 16736, "malaria": 19132, "truman": 15237, "ol": 19330, "\u5c71": 1831, "prestige": 14653, "rao": 10546, "vanity": 18736, "sources": 4216, "rosario": 17496, "engineer": 3992, "600": 5174, "luxembourg": 10765, "[unused733]": 738, "polymer": 17782, "whisky": 21265, "dogg": 28844, "watt": 15231, "incense": 28647, "cuts": 7659, "railing": 15747, "ed": 3968, "introduced": 3107, "wraps": 19735, "parents": 3008, "##\u5e73": 30365, "\u09be": 1378, "ever": 2412, "ample": 20851, "##tale": 22059, "conflicts": 9755, "mike": 3505, "##inating": 19185, "hess": 23484, "kitchens": 26051, "presided": 15506, "excavation": 16456, "postponed": 14475, "telugu": 12180, "gaddafi": 28924, "moving": 3048, "plays": 3248, "prisoners": 5895, "guardians": 14240, "embarrassment": 14325, "proxy": 24540, "pronounced": 8793, "##ali": 11475, "##\u66f8": 30397, "yanked": 10963, "terminating": 23552, "##rrado": 27933, "finances": 16156, "earthquake": 8372, "du": 4241, "http": 8299, "capacity": 3977, "expressway": 11720, "##bourne": 11634, "noodles": 27130, "cooke": 16546, "napkin": 20619, "buy": 4965, "flown": 10583, "benches": 19571, "grapes": 16575, "emma": 5616, "millie": 19561, "lit": 5507, "41": 4601, "##ensis": 9911, "##\u03c4": 29734, "tango": 17609, "horn": 7109, "intervening": 26623, "brakes": 13627, "patrons": 13497, "##inge": 23496, "insist": 18292, "hidalgo": 24715, "housemates": 28152, "bishops": 8414, "doorbell": 25422, "extravagant": 27856, "##\u05d3": 29791, "##scent": 27654, "shirt": 3797, "arrangement": 6512, "urgency": 19353, "february": 2337, "patricia": 10717, "##zar": 9057, "kiel": 20963, "ferdinand": 9684, "investigations": 9751, "##bha": 22655, "snails": 13482, "##rid": 14615, "cinder": 29399, "flagship": 10565, "##up": 6279, "deserves": 17210, "##asia": 15396, "danny": 6266, "reply": 7514, "##vis": 11365, "cadiz": 26342, "instead": 2612, "comb": 22863, "wyatt": 12986, "regrets": 23161, "accolades": 27447, "surveying": 19654, "quartet": 8530, "foliage": 19624, "response": 3433, "alternatively": 14084, "disappearing": 14489, "32nd": 20628, "indonesian": 9003, "\u56fd": 1799, "uncertainty": 12503, "bakery": 18112, "##je": 6460, "##\u30b5": 30231, "attempts": 4740, "scenes": 5019, "tours": 7562, "battleships": 21327, "chambers": 8477, "yukon": 19898, "appealing": 16004, "gritted": 17307, "newfound": 27608, "making": 2437, "nurse": 6821, "##\u1175": 30019, "argentine": 8511, "chow": 20209, "##inates": 28184, "ranged": 15844, "endowed": 19038, "trembling": 10226, "crushing": 14527, "2500": 25108, "sprayed": 25401, "gunter": 27834, "slips": 17433, "pensions": 22024, "##elles": 22869, "coloring": 22276, "\u2016": 1519, "\u99ac": 1980, "walsh": 11019, "redistribution": 25707, "tufts": 25252, "harbour": 7440, "minerva": 27383, "avant": 14815, "clans": 16411, "hi": 7632, "esteem": 19593, "guerrillas": 26955, "provisions": 8910, "judge": 3648, "angular": 16108, "writ": 25697, "friends": 2814, "variety": 3528, "[unused229]": 234, "luisa": 25412, "##rite": 17625, "glorious": 14013, "nitrate": 29607, "widening": 17973, "automation": 19309, "roundabout": 22831, "jem": 24193, "thy": 15177, "under": 2104, "villains": 16219, "1889": 6478, "essex": 8862, "miniature": 12973, "cumbria": 25559, "##hedron": 26440, "[unused851]": 856, "\u30a2": 1693, "anniversary": 5315, "##vere": 28943, "[unused516]": 521, "##\u5143": 30295, "estonian": 12029, "fiancee": 19455, "its": 2049, "anticipation": 11162, "contrasting": 22133, "wr": 23277, "bremen": 16314, "foil": 17910, "revenues": 12594, "emission": 15760, "extinguished": 27705, "##gies": 17252, "consulted": 17535, "defamation": 27652, "pressing": 7827, "##\u83ef": 30468, "parking": 5581, "roberts": 7031, "lordship": 20698, "enzyme": 9007, "185": 15376, "##wu": 16050, "entrance": 4211, "##ppy": 27659, "9": 1023, "destroyer": 9799, "foraging": 26912, "\u76ee": 1918, "extend": 7949, "rollins": 23502, "warnings": 16234, "##quay": 25575, "##\u6210": 30380, "sociological": 24846, "1925": 4849, "asserts": 19514, "policeman": 14460, "diagram": 16403, "eireann": 29157, "clarissa": 25260, "hitch": 27738, "##kha": 15256, "cardiovascular": 22935, "employ": 12666, "wand": 23967, "evelyn": 12903, "rent": 9278, "##mis": 15630, "rescue": 5343, "mills": 6341, "moat": 25266, "##be": 4783, "alan": 5070, "##ono": 17175, "circulating": 22458, "purity": 18433, "spanned": 18212, "across": 2408, "qaeda": 18659, "copies": 4809, "jump": 5376, "##zan": 13471, "##lls": 12718, "##bell": 17327, "wong": 11789, "peanut": 21443, "mount": 4057, "lars": 16357, "1898": 6068, "stanton": 15845, "rotting": 22005, "hid": 11041, "delegation": 10656, "gonna": 6069, "essen": 29032, "spacecraft": 12076, "saving": 7494, "beds": 9705, "borg": 28709, "##udy": 20217, "fearing": 14892, "##sun": 19729, "##phonic": 27385, "efforts": 4073, "##ered": 6850, "146": 16333, "##athing": 22314, "ukrainian": 5969, "entirely": 4498, "##\u2286": 30138, "gradual": 16612, "royale": 24483, "paving": 28007, "[unused152]": 157, "\u0582": 1238, "##mite": 23419, "385": 24429, "tehran": 13503, "see": 2156, "america": 2637, "favor": 5684, "jett": 22962, "stands": 4832, "pearce": 19560, "knocking": 10591, "[unused805]": 810, "interference": 11099, "muscular": 13472, "001": 25604, "##feit": 21156, "truly": 5621, "chickens": 21868, "193": 19984, "sweetheart": 12074, "hold": 2907, "confidence": 7023, "null": 19701, "procedural": 24508, "mobilization": 25580, "incorporating": 13543, "stern": 8665, "turnover": 20991, "monte": 10125, "candace": 22905, "343": 27810, "ridiculous": 9951, "fairies": 20182, "##baum": 14898, "implying": 20242, "station": 2276, "1796": 13885, "##fied": 10451, "astronomer": 15211, "deposited": 14140, "##is": 2483, "compared": 4102, "antennae": 28624, "##sho": 22231, "northamptonshire": 21367, "michael": 2745, "scaling": 25169, "should": 2323, "sugarcane": 28910, "impatiently": 19951, "alain": 15654, "##lation": 13490, "powered": 6113, "syllable": 16353, "necessary": 4072, "trip": 4440, "##bt": 19279, "##\u0447": 29752, "shift": 5670, "hampstead": 29557, "##ama": 8067, "##ar": 2906, "television": 2547, "awake": 8300, "##hli": 27766, "thing": 2518, "regina": 12512, "mcgraw": 24179, "current": 2783, "concludes": 14730, "##3d": 29097, "##powering": 23948, "fairbanks": 24502, "candidacy": 17057, "stainless": 18676, "vista": 13005, "miles": 2661, "6000": 25961, "coronation": 12773, "enables": 12939, "##ulia": 20922, "shielding": 25553, "singleton": 28159, "intermediate": 7783, "rejected": 5837, "1773": 19916, "erosion": 14173, "pia": 24624, "conveyed": 21527, "algae": 18670, "1757": 22621, "ecole": 12431, "patti": 22732, "##inski": 19880, "trent": 7990, "##mora": 22122, "gaston": 18572, "designing": 12697, "lyrics": 4581, "nicaragua": 15448, "estranged": 24211, "##tf": 24475, "##tro": 13181, "father": 2269, "corresponding": 7978, "characteristics": 6459, "1844": 9730, "##genesis": 23737, "rwanda": 17591, "##ffy": 16329, "release": 2713, "vigorously": 22400, "glendale": 27649, "sato": 20251, "nods": 11232, "terminal": 5536, "iso": 11163, "appeals": 9023, "achieving": 10910, "mick": 10872, "melbourne": 4940, "##\u4e8c": 30278, "exhibit": 8327, "synonym": 10675, "grins": 20237, "petitioned": 22527, "##hot": 12326, "nicole": 9851, "basketball": 3455, "lambert": 12838, "403": 28203, "##dation": 20207, "dreadful": 21794, "motorcycle": 9055, "privilege": 14293, "##ush": 20668, "sustaining": 22663, "vested": 26003, "##etti": 18319, "nu": 16371, "creed": 16438, "##oche": 23555, "armand": 20371, "allen": 5297, "323": 25392, "den": 7939, "suicide": 5920, "\u110c": 1464, "[unused868]": 873, "sooner": 10076, "containment": 29174, "grab": 6723, "describe": 6235, "protege": 28567, "daylight": 11695, "\u7a7a": 1930, "tapped": 10410, "superhuman": 27061, "alex": 4074, "remixes": 15193, "##dget": 24291, "##uer": 13094, "simplest": 21304, "define": 9375, "bowling": 9116, "beings": 9552, "import": 12324, "koppen": 20139, "habit": 10427, "[unused782]": 787, "##ic": 2594, "elbow": 8999, "phones": 11640, "airborne": 10519, "##nie": 8034, "##tment": 21181, "##lier": 14355, "ounce": 19471, "ornaments": 24005, "polly": 17543, "sicily": 12071, "nana": 17810, "ignacio": 22988, "screamed": 7210, "##zz": 13213, "saddle": 12279, "johnson": 3779, "maize": 21154, "psalms": 26130, "[unused268]": 273, "teammates": 13220, "macedonia": 11492, "flung": 14016, "lads": 29126, "[unused529]": 534, "baltimore": 6222, "snowy": 20981, "ec": 14925, "statesman": 17689, "contentious": 29308, "paused": 5864, "##\u0935": 29871, "105": 8746, "vineyards": 20597, "grazed": 26627, "##lton": 13947, "interface": 8278, "sparhawk": 13709, "piracy": 24386, "venezuela": 8326, "##qi": 14702, "playboy": 18286, "obligations": 14422, "advertisements": 14389, "animated": 6579, "passive": 13135, "persians": 27229, "##khand": 25910, "gilded": 23880, "ignores": 26663, "tried": 2699, "sighting": 29426, "edgar": 9586, "cannes": 14775, "fried": 13017, "##cking": 23177, "shivered": 13927, "grimes": 24865, "swimming": 5742, "lacked": 10858, "elevation": 6678, "bao": 25945, "clayton": 11811, "daytona": 18226, "101": 7886, "authenticity": 21452, "somewhat": 5399, "butterflies": 15023, "vancouver": 6930, "disappointed": 9364, "enhanced": 9412, "##\u209c": 30099, "##iec": 23783, "flooding": 9451, "\u5f73": 1845, "cafes": 23812, "##41": 23632, "mechanic": 15893, "recipes": 19328, "##roy": 13238, "da": 4830, "reproduce": 21376, "1869": 7845, "consider": 5136, "plumage": 28764, "venture": 6957, "help": 2393, "##zine": 21254, "archeological": 23005, "magnificent": 12047, "clinics": 17865, "arrived": 3369, "junta": 22450, "1836": 10081, "shortages": 22623, "niall": 21889, "douglass": 27485, "\u0292": 1138, "leftist": 24247, "clan": 6338, "##pse": 29251, "fictitious": 23577, "backbone": 21505, "drained": 11055, "lobbied": 26421, "consumption": 8381, "domino": 23968, "##\u6cb3": 30425, "strength": 3997, "parades": 26635, "sf": 16420, "brooklyn": 6613, "buyer": 17634, "distorted": 19112, "sentai": 28650, "cathedral": 5040, "1759": 21667, "rustic": 27471, "##mie": 9856, "causeway": 23336, "258": 24398, "skyla": 21738, "umpire": 20887, "##orescence": 20030, "tunic": 23002, "shaman": 23610, "##ay": 4710, "waking": 12447, "[unused610]": 615, "convent": 10664, "kolkata": 13522, "rabbit": 10442, "gig": 15453, "million": 2454, "##ias": 7951, "paler": 24489, "lee": 3389, "southward": 22161, "1688": 24082, "skyline": 21343, "indigo": 22472, "tko": 26537, "grinned": 6973, "2007": 2289, "fission": 27521, "##ider": 18688, "gustav": 13430, "momma": 23603, "##uso": 26658, "method": 4118, "minute": 3371, "wal": 24547, "\u52a0": 1779, "service": 2326, "sinai": 20837, "##rney": 27114, "fixtures": 17407, "##rice": 17599, "solid": 5024, "##evich": 16277, "encompassed": 24058, "pulsed": 24107, "leopard": 16240, "##\u2021": 30062, "merton": 28169, "debate": 5981, "##isto": 20483, "denies": 23439, "##hre": 28362, "##gles": 17125, "menace": 19854, "[unused709]": 714, "fork": 9292, "##ones": 21821, "chun": 20979, "frame": 4853, "##olar": 19478, "absolute": 7619, "vera": 12297, "##\u79c0": 30454, "topical": 25665, "##yck": 28377, "##\u110b": 29999, "gulf": 6084, "nanny": 19174, "straighten": 28568, "[unused572]": 577, "##zumi": 28114, "268": 25143, "##\u30a4": 30221, "\u5b97": 1821, "publicity": 11845, "glared": 9400, "giacomo": 22873, "indirect": 14958, "##\u4e0a": 30268, "ao": 20118, "cost": 3465, "subjective": 20714, "fresno": 20840, "single": 2309, "applicable": 12711, "monica": 9018, "##hosh": 26643, "##\u2154": 30110, "regimes": 25228, "##founded": 21001, "collaborations": 17437, "merchant": 6432, "##\u0f53": 29965, "essence": 11305, "breach": 12510, "homer": 11525, "beaches": 12212, "1824": 11617, "ad": 4748, "evolved": 7964, "similarly": 6660, "gaa": 19930, "implementation": 7375, "eugene": 8207, "264": 21611, "##ardo": 24649, "outlying": 25376, "axel": 18586, "invitational": 20129, "gut": 9535, "##outs": 12166, "basis": 3978, "genevieve": 20245, "scrapped": 14553, "copying": 24731, "kraft": 26680, "olympics": 3783, "sway": 17812, "ortiz": 19439, "participate": 5589, "injunction": 22928, "haiti": 12867, "stones": 6386, "##uled": 18696, "amounts": 8310, "##sar": 10286, "##yana": 16811, "santo": 11685, "al": 2632, "104": 9645, "scramble": 25740, "huey": 29503, "leaves": 3727, "mouth": 2677, "kinetic": 20504, "##gut": 27920, "\u30a4": 1695, "hears": 14994, "##ophone": 25232, "dominic": 11282, "baseline": 26163, "possibility": 6061, "decomposition": 22511, "compositions": 9265, "fungus": 16622, "absence": 6438, "explores": 15102, "bloody": 6703, "catastrophe": 25539, "nomenclature": 23718, "##og": 8649, "nothin": 24218, "investigative": 15025, "knockout": 11369, "anxiously": 23403, "operating": 4082, "\u09b9": 1377, "prospective": 17464, "in": 1999, "turin": 13667, "##ivated": 21967, "licensing": 13202, "huts": 23326, "quebec": 5447, "##\u967d": 30499, "\u02bf": 1148, "toss": 10055, "sylvie": 26009, "listened": 7791, "andersson": 28643, "jackie": 9901, "mikey": 25998, "steady": 6706, "had": 2018, "##rak": 16555, "wars": 5233, "modest": 10754, "##lei": 23057, "disciples": 17102, "added": 2794, "pomeranian": 17717, "##ore": 5686, "large": 2312, "marriages": 12743, "erwin": 22209, "dyed": 28432, "##vable": 12423, "prairie": 10996, "seymour": 13254, "##hurst": 10510, "mateo": 19327, "deteriorated": 20111, "magic": 3894, "\u8033": 1937, "constitution": 4552, "pga": 14198, "buffet": 28305, "##sberg": 11711, "beforehand": 25828, "##year": 29100, "predicted": 10173, "wrestlers": 14039, "##vati": 20203, "##ech": 15937, "##bbling": 15343, "bounced": 13605, "sable": 23492, "##wide": 22517, "conception": 13120, "sweaty": 19889, "teasing": 12216, "demanding": 9694, "##bana": 19445, "headmaster": 16296, "120": 6036, "interception": 17385, "\u30d8": 1721, "##mbs": 29232, "livestock": 11468, "mats": 22281, "donegal": 25415, "##\u0bc1": 29933, "heads": 4641, "##iform": 22631, "lawrence": 5623, "inclined": 13050, "nutritional": 28268, "##rath": 27362, "connect": 7532, "##ox": 11636, "rouge": 12801, "ravens": 17272, "##oes": 22504, "anxious": 11480, "environments": 10058, "##gina": 20876, "misunderstood": 28947, "privy": 14452, "##ron": 4948, "##nded": 25848, "\u0bae": 1389, "billing": 25640, "##finder": 23695, "##ogenic": 24278, "##ddling": 21814, "ngo": 17895, "roar": 11950, "es": 9686, "atom": 13787, "msc": 23794, "compound": 7328, "skill": 8066, "texans": 23246, "compose": 17202, "meaning": 3574, "attacker": 17346, "dessert": 18064, "applies": 12033, "##\u90e1": 30485, "##fat": 27753, "\u2070": 1536, "gilles": 21717, "##plify": 28250, "assists": 8456, "credit": 4923, "developing": 4975, "surveyed": 12876, "[unused615]": 620, "depict": 17120, "\u21d2": 1591, "##owski": 15249, "adhere": 25276, "armies": 8749, "runes": 29161, "constituencies": 13315, "container": 11661, "overlooked": 17092, "##rove": 17597, "steven": 7112, "clapped": 18310, "championships": 3219, "consulting": 10552, "##\u207f": 30080, "louie": 17438, "haunting": 20161, "chilled": 23362, "##ungen": 23239, "chancellor": 7306, "wallace": 7825, "conditional": 18462, "graceful": 19415, "belly": 7579, "sighted": 19985, "khorasan": 23225, "spielberg": 28740, "##\u00ab": 29654, "geelong": 18664, "[unused622]": 627, "##meral": 28990, "89": 6486, "tube": 7270, "slumped": 14319, "revive": 17995, "engineers": 6145, "hardly": 6684, "transition": 6653, "atv": 29108, "w": 1059, "prejudice": 18024, "displayed": 6913, "329": 29567, "residents": 3901, "challenger": 12932, "##nch": 12680, "hornets": 24855, "commemorate": 13415, "carrot": 25659, "somehow": 5064, "[unused976]": 981, "cavaliers": 25096, "days": 2420, "chemist": 15535, "decorations": 14529, "##anial": 27532, "script": 5896, "##ise": 5562, "##lais": 28704, "suburban": 9282, "nonprofit": 14495, "narrator": 11185, "fixture": 15083, "darts": 17493, "##uss": 17854, "immensely": 24256, "restricted": 7775, "chapels": 24130, "reptiles": 20978, "##\u4e95": 30280, "##all": 8095, "neolithic": 19061, "hyderabad": 13624, "proprietary": 16350, "briefs": 28760, "diabetes": 14671, "cuba": 7394, "spinning": 9419, "micro": 12702, "jr": 3781, "abdominal": 21419, "lettering": 25782, "turkish": 5037, "##che": 5403, "##hand": 11774, "keel": 19602, "azure": 24296, "boring": 11771, "institution": 5145, "flick": 17312, "moe": 22078, "reno": 17738, "2a": 23409, "##bby": 14075, "##ently": 28198, "[unused221]": 226, "sporadic": 24590, "cars": 3765, "##under": 20824, "##ost": 14122, "\u09ac": 1368, "amelie": 25285, "provided": 3024, "spanning": 13912, "targets": 7889, "1993": 2857, "dick": 5980, "re": 2128, "employment": 6107, "andover": 29463, "breaker": 24733, "brotherhood": 12865, "placing": 6885, "1775": 14276, "respecting": 27818, "tie": 5495, "markings": 13967, "sorrow": 14038, "minneapolis": 11334, "escort": 8620, "\u30e0": 1725, "utilize": 16462, "boundary": 6192, "irresistible": 27149, "colonel": 4327, "infants": 16725, "head": 2132, "crafted": 19275, "reflecting": 10842, "pollution": 10796, "proceed": 10838, "extras": 26279, "volatile": 20606, "\u09b0": 1372, "chill": 10720, "stats": 26319, "veil": 15562, "251": 22582, "romani": 23982, "mont": 18318, "proved": 4928, "##tone": 5524, "patted": 11930, "flaps": 26570, "continuing": 5719, "win": 2663, "renovations": 15576, "##rona": 26788, "provisional": 10864, "municipal": 4546, "##rland": 18324, "benton": 18685, "ex": 4654, "targeted": 9416, "##lake": 14530, "punt": 18975, "revised": 8001, "##itzer": 19253, "link": 4957, "klein": 12555, "356": 27509, "ign": 16270, "\u0131": 1104, "##lden": 28476, "jul": 21650, "viz": 26619, "liszt": 26273, "tracing": 16907, "1873": 7612, "1697": 28690, "##vern": 23062, "premiered": 5885, "temporarily": 8184, "intervene": 18793, "[unused266]": 271, "surge": 12058, "centered": 8857, "lana": 16554, "aisles": 25442, "tap": 11112, "mourning": 16236, "dirty": 6530, "1777": 16144, "stanis\u0142aw": 26133, "confluence": 13693, "profile": 6337, "##lifting": 26644, "blanc": 18698, "woken": 22795, "concerning": 7175, "##80": 17914, "##ulio": 24825, "clemens": 27277, "syndicate": 16229, "production": 2537, "rosie": 15820, "intentionally": 15734, "twist": 9792, "rearview": 28726, "glands": 23340, "pr": 10975, "##icle": 25128, "##hane": 28006, "woodrow": 23954, "em": 7861, "albums": 4042, "##uro": 10976, "##uri": 9496, "leash": 26834, "inspired": 4427, "somerset": 9198, "electric": 3751, "##rnik": 26437, "riley": 7546, "homeless": 11573, "deficit": 15074, "caused": 3303, "epidemic": 16311, "greenland": 16128, "\u1161": 1470, "vertigo": 28246, "tna": 20108, "condemned": 10033, "##\u025b": 29275, "##erine": 24226, "##akh": 27573, "degrees": 5445, "theo": 14833, "lithuania": 9838, "decorated": 7429, "##gata": 26589, "lego": 23853, "eastbound": 24773, "dangerously": 20754, "trolley": 20820, "\u00a5": 1071, "##enting": 26951, "[unused968]": 973, "##\u1112": 30005, "raised": 2992, "coal": 5317, "bipolar": 29398, "[unused670]": 675, "plasma": 12123, "fulham": 21703, "##ats": 11149, "randolph": 13031, "##cz": 27966, "plaintiffs": 23953, "az": 17207, "henrik": 18745, "\u1d49": 1499, "rattled": 19252, "fifa": 5713, "##\u221a": 30127, "lump": 15116, "boilers": 20412, "nz": 20008, "[unused834]": 839, "##vsky": 15904, "facilitating": 25505, "annabelle": 24722, "backward": 8848, "ministries": 16410, "##\u02b7": 29709, "apparent": 6835, "\u7248": 1907, "\u2113": 1577, "jewelry": 11912, "##gens": 21230, "##esis": 19009, "##\u5289": 30303, "litter": 19070, "krakow": 14576, "##ion": 3258, "mortals": 23844, "preseason": 20038, "remix": 6136, "##ller": 10820, "relocated": 7448, "##used": 13901, "mic": 23025, "nuremberg": 19346, "gage": 10012, "leung": 26037, "##\u4e16": 30271, "output": 6434, "\u305b": 1659, "commendation": 23039, "ireland": 3163, "tweed": 26922, "choral": 14564, "exclusively": 7580, "##mbo": 13344, "##\u8a9e": 30476, "jefferson": 7625, "sixth": 4369, "restructuring": 18322, "##deh": 25383, "used": 2109, "sa": 7842, "gigs": 20929, "materialized": 27075, "##iah": 12215, "417": 27519, "poisoning": 16149, "##\u09be": 29914, "##ronia": 28140, "korean": 4759, "stroked": 11699, "##\u306d": 30196, "cards": 5329, "poems": 5878, "stryker": 25429, "1675": 27194, "312": 21036, "##pres": 28994, "regulatory": 10738, "associates": 9228, "fatty": 19101, "##ptic": 20746, "[unused32]": 33, "rq": 28134, "presumed": 14609, "oaks": 13396, "gifts": 9604, "subjects": 5739, "assault": 6101, "sustained": 8760, "##sphere": 23874, "##rda": 13639, "microscopy": 29105, "##hiko": 22204, "[unused106]": 111, "warwickshire": 18430, "credentials": 22496, "\u20a9": 1573, "naturalist": 19176, "stronger": 6428, "##nary": 24041, "assam": 15181, "sikhs": 26697, "breton": 16659, "equestrian": 19191, "solely": 9578, "83": 6640, "bergen": 12674, "yer": 20416, "compulsory": 14770, "span": 8487, "experimental": 6388, "ferocious": 27863, "dolphin": 17801, "tools": 5906, "oder": 27215, "buddhist": 7992, "dwight": 14304, "marin": 16400, "temperature": 4860, "21st": 7398, "terrifying": 17082, "arises": 18653, "##\u0445": 29750, "encompass": 25281, "\u30eb": 1733, "solidarity": 14657, "##hein": 26496, "590": 25186, "##isson": 24077, "zeta": 23870, "scout": 7464, "antigua": 26023, "##inian": 15830, "playhouse": 17408, "\u1d2c": 1490, "sounded": 5015, "nrl": 20686, "##cen": 27524, "\u03b7": 1161, "scripture": 18919, "rug": 20452, "brian": 4422, "##wley": 20609, "diane": 12082, "##bil": 14454, "figures": 4481, "pool": 4770, "wee": 16776, "seahawks": 21390, "frightening": 17115, "##\u2605": 30147, "##rwin": 27349, "dismissing": 28913, "distinction": 7835, "##18": 15136, "##pha": 21890, "##horse": 23024, "##oot": 17206, "advancing": 10787, "icy": 13580, "net": 5658, "stops": 6762, "feet": 2519, "madhya": 20841, "##onne": 18256, "creep": 19815, "friendly": 5379, "drunken": 15967, "utilized": 12550, "meter": 8316, "vocal": 5554, "[unused532]": 537, "butch": 17520, ")": 1007, "alvin": 17348, "musa": 23154, "fighter": 4959, "desert": 5532, "red": 2417, "##had": 16102, "##rke": 25074, "[unused768]": 773, "farm": 3888, "##\u53f2": 30316, "##typic": 23186, "##dic": 14808, "earnings": 16565, "evening": 3944, "baltic": 11275, "daggers": 24210, "directions": 7826, "##gee": 18372, "nottingham": 11331, "mcgregor": 23023, "widely": 4235, "tor": 17153, "spy": 8645, "folk": 5154, "routledge": 21180, "##ils": 12146, "ballet": 7250, "\u2666": 1626, "mixing": 6809, "dating": 5306, "##hyl": 29598, "[unused648]": 653, "quarterback": 9074, "[unused313]": 318, "paralyzed": 22348, "financial": 3361, "##tum": 11667, "##alis": 13911, "##mc": 12458, "2006": 2294, "[unused6]": 7, "##\u094b": 29879, "nassau": 14646, "requirements": 5918, "bomber": 9472, "coupled": 11211, "##ario": 16843, "[unused2]": 3, "747": 25374, "knee": 6181, "##ailed": 17440, "diva": 25992, "whitish": 16800, "143": 16065, "##und": 8630, "committing": 16873, "mormon": 15111, "gracie": 19005, "##\u0ba4": 29921, "waivers": 28654, "violins": 25877, "barren": 20225, "seventh": 5066, "turf": 14585, "categorized": 20427, "##ori": 10050, "municipalities": 7602, "ultimate": 7209, "needing": 11303, "##elo": 18349, "##harat": 28074, "##dee": 26095, "legend": 5722, "struggle": 5998, "instrument": 6602, "shine": 12342, "northernmost": 22037, "danes": 27476, "prototypes": 19599, "lacking": 11158, "cereal": 20943, "swimmer": 13361, "naughty": 20355, "##tagram": 23091, "edith": 13257, "podium": 14502, "hardy": 9532, "gavin": 9448, "##ays": 22916, "centre": 2803, "sad": 6517, "itunes": 11943, "promises": 10659, "338": 27908, "slot": 10453, "beatty": 27305, "tajikistan": 23538, "##promising": 25013, "[unused193]": 198, "[unused139]": 144, "##\u672c": 30402, "daring": 15236, "facades": 28708, "clit": 17962, "learned": 4342, "##ical": 7476, "water": 2300, "trance": 16588, "1737": 26738, "manually": 21118, "converge": 28314, "alleged": 6884, "fabulous": 18783, "barnard": 22266, "monkeys": 17059, "scary": 12459, "equivalent": 5662, "tunis": 25317, "##\u5b80": 30344, "pie": 11345, "##vera": 26061, "f1": 20069, "mori": 22993, "kidding": 12489, "astronaut": 19748, "boyfriend": 6898, "syrian": 9042, "fusiliers": 27207, "disputes": 11936, "viceroy": 19007, "[unused11]": 12, "classified": 6219, "casually": 13217, "abstract": 10061, "jacqueline": 17551, "##metric": 12589, "bolts": 19947, "originates": 16896, "locate": 12453, "pride": 6620, "twain": 24421, "starred": 5652, "benefactor": 27398, "subset": 16745, "##sner": 20479, "##arian": 12199, "baku": 16807, "[unused633]": 638, "[unused819]": 824, "reserves": 8269, "##yev": 17240, "shoulders": 4065, "morphology": 19476, "##eyer": 20211, "1200": 14840, "ste": 26261, "sim": 21934, "nests": 17415, "podcast": 16110, "bid": 7226, "youthful": 22446, "##\u0647": 14157, "abnormal": 19470, "##\u7530": 30437, "educate": 16957, "pounded": 13750, "beta": 8247, "utah": 6646, "##ocks": 25384, "bari": 22466, "myers": 13854, "##\u2297": 30140, "commemorates": 25530, "ke": 17710, "defines": 11859, "\u05dc": 1253, "sven": 21313, "mental": 5177, "reigns": 23481, "plural": 13994, "gentry": 20262, "##dt": 11927, "indira": 28232, "##dled": 20043, "##ffin": 15379, "julia": 6423, "cages": 27157, "bands": 4996, "##\u2085": 30081, "plume": 26888, "ze": 27838, "##dern": 25888, "oliveira": 24263, "exclude": 23329, "peterson": 12001, "##sham": 21010, "glitter": 27566, "francesca": 15409, "wider": 7289, "gil": 13097, "315": 22904, "transmission": 6726, "08": 5511, "hawk": 9881, "##\u03c1": 29732, "!": 999, "eating": 5983, "##azi": 16103, "##ast": 14083, "[unused958]": 963, "lyricist": 19489, "organise": 22933, "instituto": 22596, "curry": 15478, "obtained": 4663, "headlining": 26533, "gunther": 19384, "inspirational": 28676, "[unused227]": 232, "[unused554]": 559, "maguire": 26196, "sport": 4368, "pins": 16300, "##unced": 22392, "##\u6c11": 30418, "refusing": 11193, "connections": 7264, "[unused537]": 542, "eagles": 8125, "##cent": 13013, "graffiti": 17990, "\u30e3": 1728, "ju": 18414, "[unused858]": 863, "hawaiian": 12188, "mum": 12954, "##01": 24096, "##\u043d": 18947, "mediated": 19872, "ignited": 22395, "ubiquitous": 28498, "##vita": 28403, "##koff": 26126, "##chia": 20881, "[unused51]": 52, "crystals": 14438, "icons": 18407, "kent": 5982, "armistice": 19125, "summer": 2621, "##oris": 21239, "149": 17332, "suggests": 6083, "brushed": 7765, "##cans": 26642, "unofficial": 11982, "agricultural": 4910, "luigi": 15153, "##ius": 4173, "sudanese": 25603, "mani": 23624, "nigel": 12829, "chimed": 27460, "brings": 7545, "dresses": 14464, "daisy": 10409, "##meter": 22828, "kapoor": 17129, "annie": 8194, "nouvelle": 25207, "7th": 5504, "awaited": 19605, "dea": 26709, "[unused322]": 327, "##rek": 16816, "polling": 17888, "sits": 7719, "guangdong": 21287, "greatest": 4602, "unnatural": 21242, "##zation": 9276, "##een": 12129, "missionary": 8696, "\u5bbf": 1826, "radiated": 23000, "nazi": 6394, "aura": 15240, "librarian": 13850, "widen": 21255, "jacksonville": 13057, "[unused180]": 185, "preston": 8475, "[unused611]": 616, "sensitive": 7591, "extracted": 15901, "bei": 21388, "##oslav": 23085, "immaculate": 19532, "alberto": 12007, "298": 27240, "differed": 19541, "territories": 6500, "fern": 20863, "gloria": 10778, "[unused867]": 872, "reaper": 19559, "induce": 19653, "tonight": 3892, "##enne": 24336, "roy": 6060, "##\u0e25": 29954, "fife": 20537, "[unused126]": 131, "##uter": 19901, "divert": 27345, "[unused846]": 851, "1986": 3069, "orchard": 15623, "[unused289]": 294, "1904": 5692, "scraping": 23704, "##ahl": 28083, "eyes": 2159, "ithaca": 27939, "threatens": 17016, "##pressing": 24128, "giorgio": 17697, "terrific": 27547, "lynn": 9399, "peace": 3521, "[unused869]": 874, "##grave": 12830, "only": 2069, "\u305f": 1661, "##kat": 24498, "recycled": 22207, "##aux": 13754, "mysore": 20761, "moaning": 22653, "##weiler": 22384, "##14": 16932, "bedrock": 28272, "##dote": 23681, "airing": 10499, "overall": 3452, "auto": 8285, "thirsty": 24907, "minimize": 18478, "bathing": 17573, "boycott": 17757, "matches": 3503, "##\u2079": 30078, "##ika": 7556, "casa": 14124, "nick": 4172, "mystery": 6547, "caden": 23600, "saskatchewan": 10068, "gaul": 26522, "##\u516b": 30297, "[unused58]": 59, "##dick": 24066, "vatican": 12111, "burma": 11050, "friars": 24037, "giuseppe": 12574, "forces": 2749, "typing": 22868, "spike": 9997, "clip": 12528, "payroll": 26854, "harlow": 22545, "estate": 3776, "[unused576]": 581, "able": 2583, "drives": 9297, "730": 28004, "inflicted": 17303, "eerie": 18823, "vernacular": 18485, "tracker": 27080, "daphne": 16847, "##am": 3286, "requested": 7303, "[unused117]": 122, "posthumously": 12770, "wiener": 25072, "barrie": 24953, "reliability": 15258, "doesn": 2987, "hierarchy": 12571, "projective": 27473, "digger": 28661, "cite": 21893, "c": 1039, "hayden": 13872, "##birds": 12887, "spartans": 24293, "##hore": 16892, "remarried": 19316, "kruger": 27823, "gm": 13938, "##sier": 20236, "anastasia": 19447, "##phile": 24862, "##iere": 21253, "stories": 3441, "zoology": 22405, "a": 1037, "##uria": 27703, "distal": 29333, "streams": 9199, "##wara": 11872, "##erry": 19826, "intel": 13420, "##ino": 5740, "##ographer": 26145, "diverted": 18356, "##lim": 17960, "subsidies": 21762, "mor": 22822, "[unused511]": 516, "resulted": 4504, "levi": 11902, "flanders": 13998, "##aro": 10464, "crusader": 25237, "obvious": 5793, "postmaster": 20707, "welch": 17939, "painful": 9145, "corporations": 11578, "pena": 19409, "30": 2382, "sponsorship": 12026, "pack": 5308, "vegetables": 11546, "hockey": 3873, "yelling": 13175, "[unused517]": 522, "synod": 15374, "jeopardy": 26604, "400": 4278, "[unused466]": 471, "adored": 28456, "##;": 29628, "collaborating": 20295, "asks": 5176, "texture": 14902, "##yin": 25811, "paradox": 20506, "garment": 19002, "valley": 3028, "chaotic": 19633, "##national": 25434, "\u03b4": 1158, "##mony": 22847, "1570": 28881, "1894": 6539, "##iani": 25443, "worlds": 8484, "map": 4949, "skater": 18815, "sociologist": 25106, "airways": 13095, "\u4e16": 1745, "##hh": 23644, "representatives": 4505, "##yo": 7677, "guerrilla": 15722, "1714": 25241, "amp": 23713, "##test": 22199, "squeezing": 15328, "viper": 17947, "inconsistent": 20316, "\u0574": 1229, "dreams": 5544, "revealed": 3936, "##\u2098": 30096, "anglo": 7819, "games": 2399, "121": 12606, "##cute": 26869, "perpetrators": 27675, "australia": 2660, "manuscripts": 10485, "accessories": 16611, "notification": 26828, "punishments": 29115, "stepmother": 26959, "gubernatorial": 19100, "dart": 14957, "karin": 24537, "him": 2032, "swirling": 16499, "buddhism": 11388, "##ital": 18400, "spruce": 19893, "[unused583]": 588, "calmed": 20869, "##olo": 12898, "##thed": 23816, "##helm": 24546, "hush": 20261, "##bolic": 18647, "geneva": 9810, "e": 1041, "jews": 5181, "shah": 7890, "kicked": 6476, "illuminated": 14640, "[unused788]": 793, "anthony": 4938, "saved": 5552, "grayson": 17556, "feb": 13114, "lids": 26122, "nyc": 16392, "geometry": 10988, "##overs": 24302, "lotus": 13030, "blacksmith": 20987, "stakeholders": 22859, "##rds": 17811, "reminder": 14764, "knighted": 19572, "endurance": 14280, "ordered": 3641, "\u0642": 1292, "##\u6587": 30387, "brigades": 14589, "sniffing": 27646, "pristine": 27375, "merrill": 16239, "subway": 10798, "\u66f2": 1870, "attempting": 7161, "remarks": 12629, "willoughby": 24919, "wreckage": 21056, "jessica": 8201, "vibrant": 17026, "chopped": 24881, "##mm": 7382, "128": 11899, "durga": 28746, "teach": 6570, "sells": 15187, "##tute": 24518, "stresses": 23253, "plucked": 20780, "1807": 13206, "##yt": 22123, "confirms": 23283, "##vron": 28588, "\u00a6": 1072, "obama": 8112, "offerings": 14927, "##ily": 6588, "relevance": 21923, "information": 2592, "katy": 17870, "encoding": 17181, "cpc": 28569, "forensic": 15359, "tournaments": 8504, "sleep": 3637, "theologians": 29013, "limbs": 10726, "oversaw": 14105, "cummings": 20750, "widowed": 22874, "ellie": 10707, "tobias": 16858, "comedy": 4038, "mig": 19117, "researches": 27338, "israelis": 28363, "authorship": 26324, "manuscript": 8356, "##iest": 10458, "malta": 9933, "sword": 4690, "independent": 2981, "##haven": 14650, "exported": 15612, "sweeney": 21178, "via": 3081, "mussolini": 22554, "trilogy": 11544, "horizontally": 23190, "departing": 15971, "nicky": 20158, "derby": 7350, "components": 6177, "tierney": 26198, "qui": 21864, "amherst": 19850, "patience": 11752, "gasps": 23813, "flared": 14937, "impairment": 25172, "ethical": 12962, "bard": 22759, "##yp": 22571, "plastic": 6081, "##maid": 28478, "olga": 15585, "theresa": 14781, "laced": 17958, "specialization": 28031, "forcibly": 20951, "##sus": 13203, "persuade": 13984, "arboretum": 25197, "looked": 2246, "##zong": 13150, "gambling": 12219, "##tery": 20902, "commence": 22825, "maintain": 5441, "constable": 12294, "psychiatry": 18420, "inmates": 13187, "##ised": 5084, "dempsey": 28165, "filippo": 28669, "##tails": 22081, "calcium": 13853, "protagonist": 10191, "opinion": 5448, "unfamiliar": 16261, "bop": 29432, "ginger": 14580, "academy": 2914, "##llet": 22592, "##avi": 18891, "##ire": 7442, "##bes": 12681, "##ading": 23782, "honors": 7836, "reformer": 24767, "liam": 8230, "diplomats": 23473, "latitude": 15250, "unearthed": 27422, "thump": 21324, "##code": 16044, "spiral": 12313, "##feld": 8151, "\u03c2": 1172, "troubled": 11587, "branding": 16140, "##bron": 21337, "cypriot": 18543, "annapolis": 24889, "jennifer": 7673, "uzbekistan": 17065, "##lette": 27901, "hurdle": 27630, "propagation": 20594, "dignity": 13372, "mo": 9587, "voters": 7206, "exchequer": 28889, "thigh": 10120, "1782": 16890, "gin": 18353, "myles": 27056, "retracted": 28214, "kowalski": 28874, "various": 2536, "consular": 27326, "annual": 3296, "roofed": 26080, "62": 5786, "statements": 8635, "baroque": 10456, "insistence": 20616, "hayes": 10192, "positive": 3893, "##gp": 21600, "##\u79be": 30453, "pottery": 11378, "detectives": 18145, "26th": 14935, "belgium": 5706, "##eem": 21564, "##\u222a": 30132, "diverse": 7578, "1747": 24522, "sewage": 19873, "anywhere": 5973, "##emi": 23238, "[unused354]": 359, "roads": 4925, "ren": 14916, "mist": 11094, "stumble": 21811, "yugoslav": 12292, "##oza": 25036, "##\u3053": 30181, "##ison": 10929, "bluegrass": 21286, "sounding": 9391, "tom": 3419, "stature": 21120, "shuffling": 24770, "humiliation": 21171, "ought": 11276, "liechtenstein": 26500, "louvre": 25110, "washed": 8871, "choreography": 16967, "##ticus": 29587, "[unused982]": 987, "[unused942]": 947, "##card": 11522, "dual": 7037, "##\u0561": 29766, "cleavage": 28691, "edouard": 21627, "monkey": 10608, "##\u00a9": 29652, "##nt": 3372, "reunification": 28044, "floors": 8158, "##\u00a8": 29651, "marcel": 13389, "##bber": 29325, "goldsmith": 22389, "octagonal": 22340, "agustin": 26889, "1980": 3150, "344": 29386, "gotham": 22814, "weird": 6881, "rod": 8473, "340": 16029, "duck": 9457, "submarines": 12622, "[unused765]": 770, "durham": 9296, "##late": 13806, "amazed": 15261, "brackets": 19719, "shire": 13182, "provost": 18523, "1934": 4579, "kernel": 16293, "batter": 23801, "1725": 25651, "##mates": 15416, "counselor": 17220, "massimo": 28080, "matter": 3043, "44": 4008, "andy": 5557, "##sty": 21756, "murder": 4028, "statues": 11342, "researched": 18800, "##ma": 2863, "salle": 18005, "till": 6229, "bella": 12101, "132": 14078, "connecting": 7176, "considering": 6195, "footballers": 27784, "[unused5]": 6, "1882": 7131, "domes": 26193, "continued": 2506, "dog": 3899, "smashwords": 25151, "##avio": 28471, "\u308b": 1687, "sentinel": 16074, "nh": 18699, "##laid": 24393, "cuff": 26450, "[unused122]": 127, "viking": 12886, "##ir": 4313, "successfully": 5147, "stink": 27136, "##nas": 11649, "dorset": 15367, "[unused987]": 992, "digest": 17886, "confused": 5457, "tarzan": 24566, "680": 23944, "conviction": 10652, "[unused929]": 934, "joint": 4101, "operations": 3136, "[unused934]": 939, "histoire": 20088, "bags": 8641, "wavelength": 19934, "\u6238": 1857, "engraving": 23501, "[unused56]": 57, "stay": 2994, "lie": 4682, "##yang": 12198, "pockets": 10306, "neuroscience": 23700, "dishes": 10447, "decreases": 17913, "hurricane": 7064, "catholics": 10774, "commercials": 12698, "\u00df": 1096, "jude": 12582, "paste": 19351, "hum": 14910, "clad": 13681, "\u4f8d": 1765, "remove": 6366, "feudal": 16708, "##\u533a": 30308, "alexandre": 16971, "habitats": 10746, "wigan": 15598, "norris": 15466, "sidney": 11430, "tremor": 27734, "turnpike": 17116, "bench": 6847, "\u9673": 1972, "##lho": 28061, "abel": 16768, "bridget": 19218, "mathematician": 13235, "nine": 3157, "behind": 2369, "\u2206": 1594, "elaborate": 9603, "scanned": 11728, "rhode": 9763, "##pressed": 19811, "beverages": 21705, "##eu": 13765, "##vino": 26531, "implications": 13494, "definite": 15298, "provoke": 27895, "##yas": 16303, "##ffi": 26989, "demoted": 25692, "cas": 25222, "##\u5065": 30294, "shivers": 28464, "##bay": 15907, "hormone": 18714, "\u2205": 1593, "percy": 11312, "mckenna": 21749, "vic": 10967, "sketch": 11080, "boxes": 8378, "cupboard": 25337, "nantes": 25387, "rubin": 20524, "amos": 13744, "pts": 19637, "\u1d35": 1493, "hope": 3246, "doing": 2725, "suit": 4848, "##vd": 16872, "bt": 18411, "##iens": 24836, "[unused498]": 503, "tightly": 7371, "replied": 3880, "alonso": 17649, "fights": 9590, "##af": 10354, "##ids": 9821, "solvent": 23735, "howell": 18473, "awe": 15180, "##oh": 11631, "exercising": 28428, "southport": 27494, "sabotage": 20223, "\u7530": 1911, "trench": 14185, "lose": 4558, "orphan": 18211, "##bc": 9818, "adolescent": 20274, "dax": 27116, "rhodesia": 20340, "philosophers": 17586, "posing": 20540, "\u201e": 1525, "##art": 8445, "loire": 20399, "shifts": 12363, "escorts": 24877, "##cis": 22987, "##ding": 4667, "##eur": 11236, "alessandro": 17956, "1984": 3118, "fiance": 19154, "aidan": 12643, "cantor": 26519, "nude": 15287, "slippery": 22274, "oversized": 21698, "testosterone": 25937, "reinforce": 19444, "ideal": 7812, "enterprise": 6960, "botswana": 19414, "\u738b": 1909, "sensing": 13851, "arsenal": 9433, "advances": 9849, "learning": 4083, "widespread": 6923, "astronomy": 12799, "hydrogen": 9732, "georgie": 20280, "viewers": 7193, "[unused920]": 925, "base": 2918, "duffy": 17971, "tory": 17117, "realizing": 9301, "aquitaine": 24973, "parcels": 28998, "staging": 15308, "foreigner": 29524, "user": 5310, "arches": 13540, "niche": 18111, "[unused239]": 244, "abundant": 12990, "##uming": 24270, "masses": 11678, "manning": 11956, "cornerstone": 23354, "crooked": 15274, "oskar": 28626, "private": 2797, "barbarians": 28056, "consort": 13440, "phenomena": 13352, "volunteered": 14382, "cocoa": 22940, "opens": 7480, "menon": 25111, "##mler": 18602, "gemma": 19073, "select": 7276, "silk": 6953, "blindly": 25734, "xi": 8418, "175": 12862, "bismarck": 22029, "##ded": 5732, "mildly": 19499, "##kia": 21128, "sweep": 11740, "##ole": 9890, "cowan": 25752, "analyzed": 16578, "##mouth": 14359, "pv": 26189, "cartoons": 13941, "##cake": 17955, "nuclei": 23767, "justine": 26377, "premiership": 11264, "inspect": 22459, "denomination": 18683, "character": 2839, "tries": 5363, "minas": 21750, "candles": 14006, "khyber": 28416, "swimmers": 21669, "talked": 5720, "##ker": 5484, "##isi": 17417, "industrial": 3919, "dead": 2757, "perez": 10730, "observes": 24451, "eagerly": 17858, "##ize": 4697, "##\u305b": 30185, "throws": 11618, "carrie": 13223, "reginald": 14435, "bucharest": 14261, "##man": 2386, "accomplished": 8885, "##west": 19650, "nguyen": 16577, "tirana": 24631, "bays": 13933, "melinda": 23721, "attachment": 14449, "arsenic": 29596, "1992": 2826, "reigning": 16323, "wrapped": 5058, "fra": 25312, "uncle": 4470, "competition": 2971, "##\u7acb": 30457, "recruits": 15024, "consumer": 7325, "tow": 15805, "inception": 12149, "easier": 6082, "providing": 4346, "yusuf": 23495, "##eia": 27958, "##holders": 17794, "##lating": 22248, "##onic": 12356, "francoise": 28979, "locke": 18343, "textile": 12437, "##iko": 12676, "##venor": 26806, "##iae": 19001, "unincorporated": 7754, "##\u0433": 29741, "shay": 18789, "facilitates": 27777, "##sive": 12742, "190": 11827, "exhibits": 10637, "doin": 24341, "firing": 7493, "again": 2153, "kirk": 11332, "enhancement": 22415, "basin": 6403, "\u05ea": 1267, "army": 2390, "flotilla": 17150, "\u1d65": 1510, "whitney": 9809, "sacred": 6730, "flows": 6223, "\u0e2d": 1421, "##sol": 19454, "audible": 19525, "frames": 11048, "derivation": 29280, "##\u0dc0": 29943, "##\u30c6": 30239, "penn": 9502, "oaxaca": 26923, "##gers": 15776, "1905": 5497, "cells": 4442, "##\u0965": 29881, "exercises": 11110, "1702": 26776, "mound": 12048, "lenny": 19065, "surface": 3302, "dictatorship": 18944, "crap": 10231, "neon": 16231, "muller": 12304, "65": 3515, "ritchie": 20404, "##balls": 18510, "\u30e7": 1730, "##amp": 16613, "hague": 14575, "commitment": 8426, "##\ufb01": 30510, "chuckle": 15375, "##\u0927": 29862, "1960": 3624, "abducted": 20361, "jase": 18626, "critically": 11321, "eve": 6574, "##zed": 5422, "aarhus": 29173, "##laise": 25122, "coma": 16571, "super": 3565, "uranium": 14247, "##ae": 6679, "##castle": 23662, "apical": 29197, "persecution": 14522, "grabs": 13273, "##pati": 24952, "arguments": 9918, "##rmed": 29540, "transplant": 22291, "agenda": 11376, "##antes": 24985, "pickup": 15373, "bucks": 14189, "evacuation": 13982, "afternoon": 5027, "athletics": 6482, "fledged": 26712, "souza": 26598, "reverse": 7901, "descends": 23328, "trainers": 21992, "mock": 12934, "##ested": 17944, "bestseller": 24304, "##\u30b7": 30232, "eastwood": 24201, "dali": 29095, "##cki": 18009, "directorial": 21635, "\u028c": 1134, "herds": 28822, "gareth": 20243, "jocelyn": 23786, "##itating": 16518, "##~": 29643, "pioneers": 13200, "scenery": 17363, "superiors": 22983, "fastened": 24009, "support": 2490, "##ari": 8486, "emanuel": 21135, "##wy": 18418, "blew": 8682, "##offs": 27475, "sk": 15315, "loans": 10940, "##onzo": 29452, "##en": 2368, "positioned": 10959, "covert": 19813, "auguste": 20758, "cache": 17053, "professionally": 12145, "##\u0431": 29740, "genetics": 14471, "jeffrey": 10799, "lanes": 10914, "##sack": 25607, "drowned": 12805, "##movable": 25661, "bois": 19651, "[unused299]": 304, "wet": 4954, "[unused386]": 391, "##\u3001": 30161, "##rwood": 20941, "generates": 19421, "##len": 7770, "beverage": 19645, "neumann": 22860, "tempted": 16312, "engulfed": 24692, "aunt": 5916, "tighten": 21245, "surplus": 15726, "moses": 9952, "##tropical": 25528, "reconstruction": 8735, "treatise": 15326, "footsteps": 9717, "process": 2832, "ile": 17869, "\u0f62": 1434, "monterrey": 26843, "##ten": 6528, "aquatic": 13582, "clock": 5119, "southeast": 4643, "##lbert": 23373, "brook": 9566, "cured": 21391, "instance": 6013, "1823": 12522, "nationalism": 14594, "nestled": 22704, "##titled": 21309, "constantly": 7887, "mercantile": 25420, "insects": 9728, "1982": 3196, "sesame": 23605, "freezing": 12809, "cents": 16653, "andrey": 29219, "compassion": 15398, "cryptic": 26483, "stevie": 17458, "sandra": 12834, "nord": 13926, "bones": 5944, "accuracy": 10640, "##om": 5358, "development": 2458, "obedience": 22645, "amusement": 9778, "luggage": 17434, "issues": 3314, "reputed": 22353, "\u0e21": 1415, "toxin": 29090, "pocket": 4979, "##\u5cf6": 30359, "interactive": 9123, "executing": 23448, "greene": 11006, "res": 24501, "statue": 6231, "outset": 26674, "lived": 2973, "##rization": 26910, "##\u06cc": 24830, "scotland": 3885, "belt": 5583, "##cence": 29320, "meaningful": 15902, "ware": 16283, "hassan": 13222, "##position": 26994, "jill": 10454, "boosted": 28043, "flanks": 23547, "ancient": 3418, "castile": 15656, "##oni": 10698, "##stock": 14758, "var": 13075, "styling": 20724, "investments": 10518, "section": 2930, "bun": 21122, "smoking": 9422, "nineteenth": 9137, "continuous": 7142, "##\u306c": 30195, "makeup": 5789, "clipped": 20144, "evolutionary": 12761, "scanning": 13722, "lombardy": 27728, "[unused371]": 376, "reach": 3362, "lawful": 26410, "\u0281": 1128, "bohemia": 16799, "xx": 22038, "too": 2205, "faced": 4320, "darker": 9904, "finishing": 5131, "census": 2883, "##sey": 7952, "1622": 28133, "boxing": 8362, "complain": 17612, "hectare": 20406, "la": 2474, "said": 2056, "hatred": 11150, "##ided": 14097, "##oting": 20656, "[unused336]": 341, "##tal": 9080, "##van": 6212, "quoted": 9339, "artemis": 19063, "pause": 8724, "##llus": 20159, "inflation": 14200, "dudley": 12648, "sibling": 22941, "namesake": 17283, "grammy": 8922, "stunts": 28465, "##rook": 25399, "##elis": 29282, "\u057e": 1235, "[unused446]": 451, "nicola": 17388, "##utive": 28546, "japanese": 2887, "brushes": 22569, "##lad": 27266, "mere": 8210, "raw": 6315, "holiness": 27692, "flinch": 23224, "1825": 11384, "reliable": 10539, "hovering": 16349, "1743": 25615, "##dun": 27584, "##\u0e21": 29951, "##urities": 29366, "clauses": 24059, "flowers": 4870, "giggles": 26466, "assure": 14306, "antoinette": 28429, "indian": 2796, "roofs": 15753, "laughs": 11680, "ordinance": 16692, "[unused248]": 253, "slaves": 7179, "\u7684": 1916, "wandering": 13071, "jp": 16545, "maddie": 17805, "abbess": 28010, "realized": 3651, "ash": 6683, "insanity": 19272, "[unused465]": 470, "islam": 7025, "success": 3112, "##rangle": 21476, "biking": 28899, "warriors": 6424, "soprano": 10430, "antoine": 12445, "apocalyptic": 27660, "##\u2500": 30142, "\u09bf": 1379, "##\u0459": 29762, "wreck": 12006, "sequence": 5537, "grinning": 11478, "greece": 5483, "relay": 8846, "conversation": 4512, "turning": 3810, "[unused42]": 43, "##ati": 10450, "sir": 2909, "honest": 7481, "october": 2255, "spelling": 11379, "general": 2236, "projects": 3934, "explaining": 9990, "convinced": 6427, "assigns": 24022, "dramatic": 6918, "incarcerated": 23995, "author": 3166, "suites": 19796, "reverted": 16407, "field": 2492, "slender": 10944, "##\u9f8d": 30508, "councils": 10784, "soloists": 27516, "whoever": 9444, "cerro": 25498, "rebuild": 14591, "venues": 9356, "jayne": 24408, "freeing": 22198, "chesterfield": 22699, "utc": 11396, "cha": 15775, "##sca": 15782, "data": 2951, "##ette": 7585, "cultures": 8578, "##\u2502": 30143, "heterosexual": 28229, "\u304f": 1653, "member": 2266, "maharaja": 21609, "portrays": 17509, "##aru": 15728, "bypass": 11826, "berwick": 24957, "siena": 23754, "mondays": 28401, "mayer": 14687, "studies": 2913, "prospect": 9824, "emeritus": 12372, "weathered": 28445, "torso": 15190, "hasty": 27151, "##cked": 18141, "33rd": 20883, "##cope": 16186, "bonded": 20886, "sikh": 17246, "note": 3602, "##inal": 13290, "##sson": 7092, "loss": 3279, "pretended": 14688, "arnold": 7779, "molecular": 8382, "wavelengths": 29263, "##cott": 13124, "sweets": 26844, "ralph": 6798, "starter": 11753, "slipping": 11426, "decommissioned": 14394, "vampires": 6144, "tsunami": 19267, "bruins": 18159, "county": 2221, "matched": 10349, "cooled": 12981, "mastery": 26364, "##nay": 16741, "bordeaux": 16384, "choose": 5454, "dangers": 16796, "lew": 24992, "1680": 24621, "terrestrial": 12350, "##ttes": 14581, "##an": 2319, "presidential": 4883, "##kulam": 28871, "drowning": 14759, "##pop": 16340, "buzz": 12610, "##christ": 26654, "characterization": 23191, "venue": 6891, "##nity": 22758, "##nets": 22781, "costello": 21015, "crown": 4410, "nuns": 16752, "minerals": 13246, "bugs": 12883, "lewis": 4572, "squash": 18794, "117": 12567, "lopez": 8685, "##bis": 18477, "##\u2609": 30149, "estadio": 14143, "tactic": 19717, "##aha": 23278, "##wall": 9628, "##ywood": 26985, "detachments": 29568, "trumpet": 9368, "\u7cf9": 1934, "yellowstone": 29231, "devised": 14917, "porte": 25927, "##\u056b": 29772, "unclear": 10599, "lucknow": 23571, "pens": 25636, "obstacle": 18355, "therese": 25598, "procession": 14385, "ongoing": 7552, "third": 2353, "garments": 21902, "subordinate": 15144, "someplace": 24956, "##ocation": 23909, "reportedly": 7283, "rotterdam": 15632, "cunningham": 13652, "rituals": 13549, "surf": 14175, "##efe": 27235, "traditions": 7443, "allowing": 4352, "##rage": 24449, "##eil": 24359, "clement": 12223, "fuss": 28554, "##ively": 14547, "\u30cf": 1718, "##zhou": 9791, "os": 9808, "applicant": 23761, "jaipur": 28355, "carbon": 6351, "mckay": 16225, "##\u5ba3": 30349, "\u2248": 1606, "##at": 4017, "##ek": 5937, "disqualified": 14209, "trousers": 15292, "packaged": 21972, "taft": 19911, "urged": 9720, "here": 2182, "hutton": 20408, "squealed": 26175, "related": 3141, "sink": 7752, "teenage": 9454, "ruby": 10090, "westchester": 25489, "bmw": 13154, "1991": 2889, "mom": 3566, "monastery": 6408, "specializing": 14055, "find": 2424, "heap": 16721, "conducts": 17976, "\u0435": 1185, "sevilla": 29363, "vito": 25550, "jealous": 9981, "knicks": 27817, "journalist": 4988, "[unused722]": 727, "rodney": 13898, "direct": 3622, "short": 2460, "tabitha": 21581, "##moto": 15319, "primaries": 27419, "explained": 4541, "sagged": 26719, "\u9580": 1968, "\u2012": 1515, "1778": 16331, "wherein": 16726, "##ingham": 16445, "rail": 4334, "finishes": 12321, "##rey": 15202, "presence": 3739, "prayer": 7083, "peaked": 6601, "##llation": 20382, "babylonian": 26990, "soviets": 15269, "hickory": 28158, "beach": 3509, "hear": 2963, "morris": 6384, "works": 2573, "costly": 17047, "\u3051": 1654, "medicine": 4200, "adequately": 23613, "excessive": 11664, "##ifice": 23664, "suspicions": 17817, "assign": 23911, "travel": 3604, "konrad": 22958, "loose": 6065, "designer": 5859, "##aman": 23093, "convoys": 23083, "\u0f42": 1426, "mistaken": 13534, "236": 23593, "sparkled": 28092, "cycles": 12709, "crew": 3626, "amphibious": 16182, "bedford": 12003, "63": 6191, "fda": 17473, "hilly": 22800, "producer": 3135, "thru": 27046, "##kee": 20553, "quasi": 17982, "vis": 25292, "crossroads": 16760, "peshawar": 28777, "monk": 8284, "troupe": 16017, "\u7592": 1913, "##eit": 20175, "honor": 3932, "framing": 20241, "physically": 8186, "##tek": 23125, "##_": 29638, "waiting": 3403, "meyer": 11527, "##js": 22578, "latino": 7402, "complimented": 27175, "uniforms": 11408, "logistics": 12708, "##torium": 24390, "accessed": 11570, "cloth": 8416, "playfully": 22608, "journalism": 8083, "true": 2995, "##ffer": 12494, "##mara": 28225, "keyboard": 9019, "shakespeare": 8101, "qualities": 11647, "lissa": 20244, "martinique": 29365, "##ve": 3726, "reduced": 4359, "##sper": 17668, "ambushed": 22168, "##\u0ba8": 29922, "##\u043d\u0430": 19865, "beasts": 15109, "ma": 5003, "completely": 3294, "arthritis": 27641, "janata": 20308, "pioneered": 16193, "deadline": 15117, "\u10e1": 1452, "grew": 3473, "throw": 5466, "\u0921": 1321, "##take": 15166, "resonance": 17011, "aide": 14895, "##rent": 22787, "bonding": 19882, "persistence": 28297, "imaging": 12126, "##\u00a5": 29648, "[unused757]": 762, "\u30db": 1722, "events": 2824, "fly": 4875, "##oya": 18232, "[unused265]": 270, "clover": 25133, "focus": 3579, "eliminated": 5892, "ii": 2462, "pumps": 15856, "stretching": 10917, "3rd": 3822, "translate": 17637, "seneca": 21224, "limestone": 9771, "wilkinson": 16237, "##naire": 20589, "recorder": 14520, "fresco": 26991, "fu": 11865, "##rity": 15780, "##sons": 23345, "##stadt": 21543, "##ami": 10631, "catches": 11269, "chao": 22455, "##ccus": 27631, "wiring": 27930, "bose": 21299, "festivals": 7519, "pomerania": 18631, "pray": 11839, "girlfriends": 27408, "unicorn": 21830, "##cter": 21162, "oklahoma": 5858, "vehicles": 4683, "renegade": 28463, "moments": 5312, "palestinians": 21524, "texts": 6981, "##outh": 17167, "merger": 7660, "sausage": 24165, "facilitated": 19601, "capture": 5425, "burying": 20491, "driven": 5533, "margins": 17034, "##ent": 4765, "##chen": 8661, "breeding": 8119, "##zell": 24085, "mercury": 8714, "[unused298]": 303, "kiev": 12100, "##=": 29630, "hospital": 2902, "1772": 17483, "envelope": 11255, "measure": 5468, "[unused110]": 115, "homecoming": 20772, "1805": 13126, "charted": 12568, "##falls": 28067, "\u3072": 1673, "violet": 8766, "heels": 8265, "postage": 22981, "uniquely": 20640, "227": 21489, "hacking": 23707, "##\u0e1e": 29950, "visible": 5710, "believed": 3373, "futuristic": 28971, "departure": 6712, "zu": 16950, "##holz": 28094, "ushered": 23815, "certainly": 5121, "race": 2679, "limitations": 12546, "[unused983]": 988, "sunlight": 9325, "anand": 18887, "mri": 27011, "cake": 9850, "##idia": 29342, "dimly": 25361, "\u5e78": 1841, "tracy": 10555, "rebel": 8443, "##rize": 25709, "survive": 5788, "blinding": 19709, "luce": 19913, "cubs": 12469, "circles": 7925, "viscount": 12182, "sprawling": 24199, "mt": 11047, "preserving": 15224, "##\u516c": 30298, "[unused690]": 695, "inuit": 25179, "smell": 5437, "##\u5927": 30336, "transylvania": 20816, "##ove": 21818, "earls": 27371, "newer": 10947, "##vian": 18073, "##\u30ab": 30226, "1960s": 4120, "buff": 23176, "ich": 22564, "knot": 12226, "crosby": 14282, "master": 3040, "81": 6282, "briefing": 27918, "metro": 6005, "##\u4eba": 30282, "quest": 8795, "runways": 24578, "spirited": 24462, "occasions": 6642, "stealing": 11065, "suv": 15620, "capitalist": 19640, "values": 5300, "manfred": 19149, "relationship": 3276, "##rcle": 21769, "denny": 14465, "##ies": 3111, "repaired": 13671, "antonia": 24272, "1966": 3547, "after": 2044, "inexpensive": 23766, "townships": 13991, "hours": 2847, "##tar": 7559, "##ractive": 26884, "majors": 15279, "##eki": 26576, "allegro": 25319, "1978": 3301, "222": 19015, "off": 2125, "rotating": 13618, "seated": 8901, "intercontinental": 18725, "1967": 3476, "marvin": 13748, "heightened": 21106, "##iser": 17288, "abruptly": 9225, "punishment": 7750, "reason": 3114, "soon": 2574, "soda": 14904, "##\u0dbd": 29942, "jerry": 6128, "graf": 22160, "##43": 23777, "ideological": 17859, "hills": 4564, "##lists": 27103, "graphics": 8389, "colliery": 19462, "19th": 3708, "183": 18677, "breeds": 15910, "##ound": 28819, "convertible": 22840, "reasons": 4436, "gingerly": 26961, "cornelius": 17354, "verdict": 14392, "roosevelt": 8573, "##\u03b1": 14608, "input": 7953, "classics": 10002, "vomit": 23251, "##haling": 23896, "morton": 11164, "budapest": 10926, "baseman": 18038, "engined": 21235, "edge": 3341, "organisation": 5502, "match": 2674, "transvaal": 28336, "novgorod": 24338, "borrow": 17781, "dietary": 23444, "1604": 28754, "director": 2472, "1990s": 4134, "roche": 20162, "timor": 19746, "stationary": 17337, "[unused891]": 896, "succeeds": 21645, "exploit": 18077, "##lita": 27606, "sigma": 13201, "[PAD]": 0, "thorne": 14296, "distribute": 16062, "vector": 9207, "show": 2265, "feared": 8615, "##lm": 13728, "ravaged": 25537, "\u1111": 1468, "ana": 9617, "38th": 22051, "feminism": 20050, "fibers": 16662, "\u5c0f": 1829, "ventured": 20510, "innovations": 15463, "[unused540]": 545, "[unused711]": 716, "##ably": 8231, "realms": 18814, "berg": 15214, "##\u00a3": 29646, "combining": 11566, "[unused944]": 949, "chiba": 27368, "knit": 22404, "witches": 12566, "natural": 3019, "shock": 5213, "##ke": 3489, "demise": 13614, "mirza": 18366, "goddamn": 16477, "hammering": 27883, "unpleasant": 16010, "sunday": 4465, "dominion": 13738, "entry": 4443, "##boarding": 21172, "annoyance": 17466, "breached": 25769, "hen": 21863, "\u4e95": 1754, "##\u0438\u0438": 15414, "outskirts": 12730, "creeks": 24974, "squinting": 29156, "restraint": 19355, "champ": 24782, "gough": 29124, "go": 2175, "solitude": 22560, "ami": 26445, "\u6625": 1867, "summers": 10945, "obligatory": 26471, "sprinter": 19938, "tablets": 17596, "vida": 19830, "promise": 4872, "ensuring": 12725, "wholesale": 17264, "bracket": 21605, "1641": 25702, "495": 29302, "##olis": 20872, "sharks": 12004, "boo": 22017, "males": 3767, "haunted": 11171, "huddersfield": 19715, "##mans": 15154, "vows": 16495, "england": 2563, "grades": 7022, "spider": 6804, "lahore": 15036, "ing": 13749, "lacey": 16355, "##\u3044": 30173, "oceania": 20526, "shown": 3491, "reza": 26323, "rotor": 18929, "maclean": 22528, "fueled": 17999, "nuevo": 22250, "yellowish": 17804, "accidentally": 9554, "##ehan": 24660, "##mation": 28649, "penang": 21812, "envisioned": 18035, "##eti": 20624, "polite": 13205, "chat": 11834, "fascinated": 15677, "varies": 9783, "##ac": 6305, "[unused48]": 49, "##&": 29617, "polka": 29499, "##\u0dbb": 29941, "stade": 15649, "##udeau": 27627, "tackled": 26176, "employers": 12433, "##bone": 14417, "este": 28517, "##crat": 23185, "archduke": 27463, "vegetation": 10072, "##\u5c07": 30354, "now": 2085, "subspecies": 11056, "##rist": 15061, "##made": 21565, "manual": 6410, "investing": 19920, "north": 2167, "bud": 13007, "##dna": 28911, "handbook": 14812, "assessed": 14155, "sul": 21396, "[unused607]": 612, "briefly": 4780, "constellation": 15300, "##fully": 7699, "shortest": 20047, "urges": 23876, "1970s": 3955, "[unused328]": 333, "circular": 8206, "taluka": 29512, "railways": 7111, "\u2229": 1604, "hertfordshire": 18889, "zhao": 15634, "reset": 25141, "pulitzer": 17618, "eyebrow": 9522, "wu": 8814, "nhs": 17237, "gus": 12670, "seat": 2835, "undertake": 16617, "physiology": 16127, "bosch": 25936, "153": 16710, "fugitive": 21329, "default": 12398, "hugging": 17662, "writing": 3015, "entitled": 4709, "sparta": 21251, "##rma": 17830, "##rius": 13245, "whole": 2878, "##bro": 12618, "clarkson": 18648, "##\u30a1": 30218, "tongues": 19677, "mla": 18619, "salts": 23480, "demeanor": 21745, "successive": 11165, "##ua": 6692, "crossings": 20975, "farming": 7876, "blended": 19803, "dickens": 19675, "glasgow": 6785, "##cross": 16458, "ecclesiastical": 12301, "monarch": 11590, "##ecin": 28191, "\u3078": 1675, "jimi": 27624, "##bert": 8296, "[unused241]": 246, "make": 2191, "##holm": 18884, "##chel": 15721, "distinguish": 10782, "employer": 11194, "technicians": 20202, "stunned": 9860, "istanbul": 9960, "socially": 14286, "anything": 2505, "signaling": 14828, "sourced": 23184, "fuck": 6616, "messina": 27270, "maldives": 25059, "incorporate": 13265, "[unused789]": 794, "dfb": 28894, "cancel": 17542, "chooses": 15867, "##yan": 7054, "nate": 8253, "clarified": 20485, "electrified": 18042, "occurrences": 27247, "quincy": 16141, "edition": 3179, "meets": 6010, "rosalie": 29564, "##erian": 27549, "expenses": 11727, "chaplain": 14011, "renamed": 4096, "nerves": 10627, "charitable": 11128, "modern": 2715, "relatively": 4659, "being": 2108, "predictions": 20932, "reclamation": 27389, "sovereign": 11074, "topographic": 24254, "military": 2510, "ter": 28774, "##ure": 5397, "handed": 4375, "hauled": 13161, "[unused210]": 215, "##anger": 25121, "socialists": 21633, "dh": 28144, "##cated": 12921, "hoffman": 15107, "\u00a9": 1075, "winfield": 24739, "[unused182]": 187, "ashes": 11289, "##vish": 24968, "aching": 14750, "savior": 24859, "\u099a": 1356, "##leen": 24129, "terence": 22677, "\u03c9": 1179, "clever": 12266, "\u06d2": 1310, "beheaded": 28923, "remnant": 19614, "willie": 9893, "liberia": 18039, "##rrier": 27051, "rankings": 10385, "marijuana": 16204, "keenan": 26334, "[unused308]": 313, "differentiation": 20582, "61": 6079, "privatization": 23966, "forest": 3224, "uniting": 26112, "manipulation": 16924, "[unused525]": 530, "dev": 16475, "##nde": 13629, "periodically": 18043, "muster": 20327, "chuckles": 26088, "info": 18558, "olympus": 26742, "##hul": 21886, "back": 2067, "compliance": 12646, "##bbed": 15499, "[unused450]": 455, "charities": 15430, "caught": 3236, "longing": 15752, "juarez": 25398, "ape": 23957, "deco": 21933, "\u898b": 1948, "extremes": 28800, "bronze": 4421, "\u266d": 1627, "vaccines": 28896, "scans": 27404, "audi": 20075, "\u25aa": 1618, "##osis": 12650, "ul": 17359, "##\u09b0": 29908, "guitarists": 28523, "severn": 24753, "\u300d": 1642, "folks": 12455, "##cise": 18380, "sentence": 6251, "israeli": 5611, "named": 2315, "loved": 3866, "nominate": 23388, "democracy": 7072, "jarrett": 24503, "son": 2365, "##47": 22610, "gotta": 10657, "called": 2170, "ace": 9078, "radical": 7490, "bai": 21790, "virtue": 11870, "##free": 23301, "vineyard": 18621, "lifting": 8783, "accountants": 29114, "pressure": 3778, "[unused119]": 124, "paddy": 16063, "smile": 2868, "[unused148]": 153, "tacoma": 22954, "avatar": 22128, "\u2ebc": 1633, "\u062e": 1277, "opposing": 10078, "##tility": 18724, "student": 3076, "comic": 5021, "parliament": 3323, "[unused984]": 989, "fantasia": 29203, "##ime": 14428, "newman": 10625, "##\u10d9": 29982, "##rod": 14127, "pol": 14955, "[unused561]": 566, "tomb": 8136, "##rued": 28551, "fisherman": 19949, "editors": 10195, "article": 3720, "##gur": 27390, "sherry": 22268, "imprisonment": 10219, "amateur": 5515, "specified": 9675, "hypothetical": 25613, "##laus": 28128, "toledo": 13163, "##\u1167": 30010, "were": 2020, "##\u30de": 30249, "##urne": 21737, "choi": 18151, "eruptions": 28448, "countess": 11716, "##inkles": 28562, "##ge": 3351, "mixes": 21109, "##igate": 28731, "\u0f0d": 1425, "lets": 11082, "hay": 10974, "greco": 18180, "impatience": 28011, "shareholder": 18668, "ms": 5796, "hates": 16424, "wingspan": 9635, "fists": 10006, "fragile": 13072, "activism": 16841, "##rse": 22573, "kick": 5926, "wished": 6257, "k": 1047, "rhapsody": 29395, "renew": 20687, "##field": 3790, "##ditional": 27064, "##fall": 13976, "ignored": 6439, "\u304d": 1652, "pioneering": 13280, "##dran": 24914, "listening": 5962, "1760": 19096, "width": 9381, "kennedy": 5817, "gallery": 3916, "least": 2560, "##pas": 19707, "yamamoto": 28318, "##strel": 26877, "##lu": 7630, "stagecoach": 26025, "\u043e": 1193, "sucking": 13475, "you": 2017, "##\u090f": 29850, "excuse": 8016, "[unused578]": 583, "##zone": 15975, "madison": 7063, "marx": 13518, "ceo": 5766, "stare": 6237, "dolphins": 13600, "duties": 5704, "\u09ae": 1370, "\u4fdd": 1766, "tugged": 10621, "reproduction": 14627, "defence": 4721, "ares": 23631, "1892": 6527, "##erton": 20995, "supplying": 17731, "toro": 23790, "basics": 24078, "daniel": 3817, "velocity": 10146, "browne": 15005, "coke": 14492, "mistake": 6707, "purchased": 4156, "\u10d5": 1443, "\u00b0": 1080, "socks": 14829, "disciple": 17849, "pen": 7279, "literal": 18204, "\u25cf": 1619, "opened": 2441, "oscar": 7436, "snorted": 15235, "##ganj": 22738, "mouse": 8000, "internally": 16058, "##\u5fb7": 30374, "337": 28489, "escorted": 13127, "deepest": 17578, "balkans": 19733, "sergey": 22703, "##dev": 24844, "##osomal": 27642, "brianna": 25558, "scientific": 4045, "crews": 10604, "annex": 17827, "jalan": 28410, "libretto": 17621, "frown": 11330, "\u300c": 1641, "sovereignty": 12601, "fluid": 8331, "##lth": 24658, "181": 18596, "trademark": 11749, "asteroids": 26732, "louis": 3434, "smoothly": 15299, "consisting": 5398, "phillip": 10852, "##hered": 27190, "consultants": 22283, "superstar": 18795, "hamish": 28859, "[unused527]": 532, "forsyth": 29434, "saxe": 24937, "tracts": 22069, "marble": 7720, "pascal": 17878, "dark": 2601, "louder": 10989, "hapoel": 24208, "germany": 2762, "aiming": 13659, "algorithm": 9896, "trapped": 7567, "judaism": 13725, "variable": 8023, "shuttle": 10382, "\uff1a": 1993, "##ita": 6590, "cayman": 26164, "stiffened": 16090, "##eis": 17580, "\u5b66": 1817, "##ously": 13453, "##hesion": 21471, "saint": 3002, "guitarist": 5990, "liz": 9056, "debts": 13930, "##hs": 7898, "throttle": 24420, "##f": 2546, "deciduous": 22411, "analogy": 23323, "disturbing": 14888, "runner": 5479, "oceanic": 18955, "contradictory": 27894, "##esa": 22447, "wonderful": 6919, "summoned": 11908, "bodo": 28137, "ebony": 27680, "rousseau": 26868, "##jured": 26949, "donetsk": 29151, "midsummer": 28171, "painted": 4993, "[unused835]": 840, "element": 5783, "powell": 8997, "dyer": 23494, "eliza": 13234, "##mist": 23738, "circling": 18519, "prague": 8634, "circumstances": 6214, "assurance": 16375, "baking": 21522, "##th": 2705, "[unused186]": 191, "favored": 12287, "tangle": 24453, "elliptic": 29413, "injury": 4544, "coup": 8648, "investor": 14316, "##rrow": 28597, "hanged": 17818, "cuffs": 24347, "##tream": 25379, "washington": 2899, "##isches": 27239, "lithium": 22157, "strait": 11195, "affects": 13531, "strongest": 10473, "##nea": 22084, "##mous": 27711, "clumsy": 22902, "flashback": 21907, "stocked": 24802, "distributing": 20083, "blond": 8855, "[unused662]": 667, "##rn": 6826, "beauty": 5053, "##chs": 18069, "padua": 24941, "arrange": 13621, "worthless": 22692, "bows": 21207, "queen": 3035, "\u25a0": 1617, "emotion": 7603, "##gon": 7446, "divided": 4055, "deposit": 12816, "organs": 11595, "exemplified": 28593, "improvisation": 24584, "whipping": 23016, "intricate": 17796, "##oor": 16506, "ukraine": 5924, "businesses": 5661, "tito": 20712, "dune": 21643, "bachelor": 5065, "pearls": 21944, "jaguars": 24017, "int": 20014, "code": 3642, "blurred": 18449, "ghent": 24202, "download": 8816, "##base": 15058, "romans": 10900, "lunged": 17755, "placed": 2872, "contestants": 10584, "style": 2806, "grimsby": 24470, "[unused161]": 166, "van": 3158, "functioning": 12285, "surgeon": 9431, "sloping": 24724, "india": 2634, "shen": 21882, "played": 2209, "lo": 8840, "[unused362]": 367, "aim": 6614, "trickle": 26027, "quoting": 27394, "[unused135]": 140, "rutland": 27780, "irrigation": 12442, "##\u201d": 30059, "grade": 3694, "wound": 6357, "##lli": 6894, "underwater": 11564, "##dor": 7983, "##view": 8584, "aggravated": 25817, "statehood": 28000, "##mund": 25574, "brock": 13899, "##dr": 13626, "arrows": 12563, "1646": 28783, "napoleon": 8891, "##\u300b": 30166, "##asco": 28187, "quote": 14686, "##bill": 24457, "planetary": 17700, "boom": 8797, "excluding": 13343, "dec": 11703, "sedan": 15134, "##\u0272": 29689, "##esh": 9953, "della": 8611, "dispersed": 15484, "pretend": 9811, "insulation": 25710, "ponytail": 18865, "nearing": 23454, "morrison": 9959, "[unused369]": 374, "schools": 2816, "tyrone": 18770, "gunner": 14850, "dictionary": 9206, "meal": 7954, "tandem": 18231, "gregory": 7296, "campbell": 6063, "##ific": 18513, "claudio": 19569, "professorship": 22661, "currently": 2747, "taxa": 23726, "colombo": 16224, "munro": 20923, "essays": 8927, "pleistocene": 25080, "broadband": 19595, "feral": 18993, "discovers": 9418, "dubois": 26258, "##udence": 29424, "equilibrium": 14442, "gigantic": 20193, "asked": 2356, "##idium": 28742, "encourage": 8627, "upstairs": 8721, "vidhan": 28590, "musical": 3315, "reminiscent": 14563, "travels": 7930, "\u056c": 1226, "##fting": 26169, "beige": 28799, "integrating": 22380, "xp": 26726, "emphasized": 13155, "squeeze": 11025, "pba": 21563, "penalty": 6531, "[unused347]": 352, "omega": 14827, "geological": 9843, "counties": 5721, "##tized": 23355, "simplified": 11038, "bobbed": 29579, "analyses": 16478, "judith": 12924, "france": 2605, "duet": 11979, "folding": 12745, "##ool": 13669, "violated": 14424, "##yl": 8516, "amulet": 25087, "heat": 3684, "lough": 29504, "bombers": 10544, "filmmaking": 24466, "lush": 16299, "subcontinent": 26125, "slice": 14704, "last": 2197, "[unused680]": 685, "questioning": 11242, "cheated": 22673, "concourse": 28571, "novi": 21574, "extension": 5331, "##\u738b": 30435, "[unused684]": 689, "pendleton": 24349, "shaded": 25273, "battles": 7465, "\u963f": 1971, "empress": 10248, "[unused777]": 782, "tell": 2425, "specialising": 23315, "[unused202]": 207, "answered": 4660, "levy": 12767, "apologetic": 29352, "##lov": 14301, "pointing": 7302, "sailor": 11803, "practitioner": 18742, "kathleen": 14559, "reich": 14365, "remade": 26943, "sanity": 20039, "highland": 10983, "##\u3082": 30207, "warmed": 17336, "va": 12436, "keeps": 7906, "##il": 4014, "miguel": 8374, "zen": 16729, "retorted": 24056, "##un": 4609, "principle": 6958, "achilles": 23167, "templar": 27850, "implements": 22164, "hansen": 13328, "radar": 7217, "responses": 10960, "apple": 6207, "\u6cd5": 1901, "crowley": 20748, "platoon": 13799, "exceeding": 17003, "handicap": 15822, "patented": 16719, "cloak": 11965, "##\u201e": 30060, "##\u0928": 29863, "martha": 9246, "##arina": 27943, "[unused476]": 481, "failure": 4945, "180": 8380, "rivers": 5485, "blocks": 5991, "clashes": 17783, "conservatory": 11879, "##rini": 22612, "##llo": 7174, "took": 2165, "josephine": 16117, "gym": 9726, "dissertation": 14481, "temptation": 17232, "hillsborough": 29330, "violations": 13302, "zagreb": 12974, "manage": 6133, "kitchen": 3829, "crop": 10416, "builders": 16472, "##oic": 19419, "filled": 3561, "##iii": 28954, "motions": 15323, "##izing": 6026, "\u116d": 1477, "revealing": 8669, "visits": 7879, "marne": 25823, "naacp": 26155, "##uze": 20395, "##station": 20100, "applying": 11243, "fiesta": 24050, "##cule": 21225, "undoubtedly": 17319, "[unused959]": 964, "surprised": 4527, "114": 12457, "fabrication": 25884, "barracks": 10492, "bowen": 16208, "[unused147]": 152, "278": 24709, "slaughter": 14574, "frederick": 5406, "writings": 7896, "pathetic": 17203, "sciences": 4163, "stakes": 7533, "beaux": 20290, "palestinian": 9302, "raiding": 23530, "##ger": 4590, "semester": 13609, "meadows": 13524, "inhibitor": 24054, "##\u65b9": 30389, "salford": 23001, "libre": 21091, "helps": 7126, "##lian": 15204, "##bala": 25060, "##ken": 7520, "membership": 5779, "opined": 26084, "##yuki": 19663, "diablo": 28841, "##cin": 15459, "|": 1064, "locker": 12625, "mystic": 17477, "warmth": 8251, "##\u0dba": 29940, "loosen": 29476, "purposes": 5682, "styx": 21856, "##ulates": 18969, "sidekick": 29240, "concentrated": 8279, "167": 16785, "##loid": 27710, "recalled": 7383, "listener": 19373, "mar": 9388, "resemble": 13014, "gail": 18576, "ridley": 20608, "##ine": 3170, "[unused156]": 161, "##aver": 22208, "nina": 9401, "owns": 8617, "##ick": 6799, "pathogen": 26835, "##cp": 21906, "fest": 17037, "proving": 13946, "acres": 4631, "mustang": 18851, "averages": 20185, "software": 4007, "nwa": 15737, "french": 2413, "squeezed": 7757, "\u5341": 1783, "provides": 3640, "comparable": 12435, "psychologist": 15034, "flanagan": 26558, "2009": 2268, "ufo": 24321, "smiling": 5629, "[unused880]": 885, "stealth": 22150, "##\u00ac": 29655, "filmmakers": 16587, "##mine": 11233, "excavations": 14018, "cushion": 22936, "blackmail": 25044, "##umble": 26607, "vo": 29536, "narratives": 22143, "applications": 5097, "##lby": 14510, "caleb": 10185, "emancipation": 22656, "besieged": 17923, "\u0252": 1111, "stroking": 14943, "th": 16215, "denim": 26762, "strolled": 20354, "outlaw": 19104, "##ity": 3012, "\u00fe": 1101, "human": 2529, "all": 2035, "233": 22115, "somerville": 27209, "1666": 27407, "##\u0281": 29694, "involved": 2920, "##qua": 16211, "kyushu": 25885, "##\u0438": 10325, "mohammed": 12619, "distress": 12893, "months": 2706, "##mg": 24798, "telenovela": 25754, "roma": 12836, "##pass": 15194, "relaunched": 26391, "peeking": 28222, "setting": 4292, "##roid": 22943, "##\u3059": 30184, "##\u0e22": 29952, "##arte": 24847, "mao": 15158, "footballer": 4362, "\u1da0": 1512, "wink": 16837, "1953": 4052, "pup": 26781, "even": 2130, "##iff": 13355, "actress": 3883, "inverse": 19262, "tests": 5852, "##fide": 20740, "tearing": 13311, "wales": 3575, "[unused132]": 137, "patronage": 15694, "armor": 8177, "rise": 4125, "##orus": 21694, "##meyer": 24344, "yo": 10930, "##grapher": 18657, "shield": 6099, "frances": 10360, "gleamed": 25224, "##page": 13704, "pregnant": 6875, "bedside": 19475, "bros": 10243, "##\u30cf": 30244, "##oon": 7828, "ladies": 6456, "ip": 12997, "heidelberg": 16793, "northwestern": 7855, "searched": 9022, "640": 19714, "1946": 3918, "##nx": 26807, "benevolent": 25786, "parasite": 21198, "##bre": 13578, "migrating": 28636, "flew": 5520, "claws": 10702, "regain": 12452, "weekdays": 19759, "##vies": 25929, "positioning": 19120, "currents": 14731, "marlon": 25861, "swindon": 22350, "needy": 23927, "brood": 25565, "troy": 9553, "1837": 9713, "tigers": 7600, "\u03b2": 1156, "flute": 8928, "adequate": 11706, "princeton": 9173, "[unused45]": 46, "##\u1d58": 30042, "##nam": 13129, "##uising": 28580, "adopted": 4233, "reprint": 25364, "##icus": 14239, "bungalow": 27563, "revolutions": 25239, "##kken": 24192, "endelle": 29581, "baptized": 19775, "irwin": 17514, "oslo": 9977, "registering": 25719, "1830": 9500, "glaring": 16124, "located": 2284, "dynamite": 21719, "knesset": 27899, "per": 2566, "authoritarian": 27246, "wit": 15966, "##ix": 7646, "stony": 16104, "principals": 27928, "locally": 7246, "##tort": 25485, "##water": 5880, "adopt": 11092, "inferno": 21848, "representation": 6630, "mu": 14163, "transitioned": 23946, "caress": 21753, "##ciency": 29125, "obscure": 14485, "215": 17405, "climates": 24734, "send": 4604, "crowds": 12783, "consolidation": 17439, "greeks": 13176, "world": 2088, "##umen": 27417, "ono": 21058, "1838": 9931, "turret": 14493, "mei": 19734, "cancers": 25409, "harbor": 6496, "mountain": 3137, "mean": 2812, "shareholders": 15337, "sufficient": 7182, "collin": 22180, "rations": 29559, "##ert": 8743, "##inen": 21820, "shirley": 11280, "##mat": 18900, "frowning": 14587, "comedians": 25119, "##or": 2953, "rhino": 24091, "tactical": 8608, "winger": 16072, "crisis": 5325, "pile": 8632, "laurence": 10883, "arena": 5196, "superb": 21688, "original": 2434, "##rang": 24388, "predator": 15267, "astronomers": 26357, "fortification": 23050, "samantha": 11415, "forgot": 9471, "malvern": 28082, "eurovision": 12714, "bark": 11286, "loving": 8295, "if": 2065, "[unused563]": 568, "lawsuits": 20543, "thirty": 4228, "##yria": 20379, "crashed": 8007, "attending": 7052, "continents": 17846, "lately": 9906, "staffed": 21121, "pits": 14496, "jeanne": 14537, "60s": 20341, "##istle": 24242, "##\u056f": 29774, "wind": 3612, "granting": 15080, "imagination": 9647, "##ye": 6672, "injection": 13341, "syed": 19740, "aerodrome": 23843, "prompt": 25732, "dialogues": 22580, "patterns": 7060, "echo": 9052, "helmut": 24515, "[unused150]": 155, "##ctic": 13306, "labrador": 18604, "boiled": 17020, "##\u1019": 29973, "##md": 26876, "wien": 22782, "vinci": 23765, "php": 25718, "##sburg": 9695, "stellar": 17227, "hostility": 18258, "##oder": 27381, "##\u52a0": 30305, "franks": 21310, "spill": 14437, "##acker": 25418, "prostitute": 19215, "emir": 23434, "scotch": 18937, "whether": 3251, "##press": 20110, "nikolai": 13870, "retirement": 5075, "pointer": 20884, "racks": 27259, "turbine": 14027, "asthma": 26180, "ngc": 27645, "##if": 10128, "ry": 29431, "##ics": 6558, "conor": 20545, "lied": 9828, "argus": 25294, "thoughtful": 16465, "prosecutors": 19608, "[unused557]": 562, "stressed": 13233, "resembles": 12950, "somber": 28587, "[unused61]": 62, "46": 4805, "starbucks": 29500, "glittering": 20332, "apparently": 4593, "##pc": 15042, "##\u30a3": 30220, "defender": 8291, "latch": 25635, "kane": 8472, "##ses": 8583, "skulls": 21542, "]": 1033, "excerpts": 24962, "organist": 16397, "pebbles": 28962, "boeing": 10321, "##ele": 12260, "314": 26257, "cane": 11942, "predominantly": 9197, "shortly": 3859, "drafting": 21168, "plastered": 21832, "salamanca": 29608, "lyric": 13677, "billions": 25501, "invaded": 10836, "hats": 16717, "aye": 13442, "type": 2828, "[unused92]": 93, "##\u110e": 30001, "banded": 25264, "president": 2343, "##thermal": 23367, "[unused786]": 791, "cultural": 3451, "poem": 5961, "##rain": 21166, "abduction": 23415, "##\u03be": 29729, "horrific": 23512, "college": 2267, "[unused939]": 944, "gangs": 18542, "disgusted": 17733, "slam": 9555, "casts": 23942, "benin": 21164, "lei": 26947, "tops": 13284, "juris": 27551, "impressive": 8052, "\u30c4": 1712, "stalk": 23899, "nominees": 17853, "boxers": 18508, "adverse": 15316, "angered": 18748, "[unused676]": 681, "nursing": 8329, "orr": 26914, "idaho": 9795, "chairperson": 19072, "cynical": 26881, "intervals": 14025, "emile": 17127, "\u05e4": 1261, "##vating": 26477, "1735": 26063, "1710": 23841, "announced": 2623, "pauline": 15595, "\u00bd": 1092, "##die": 10265, "224": 19711, "sustainability": 15169, "[unused158]": 163, "[unused752]": 757, "italia": 13052, "##\u529b": 30304, "holster": 29447, "##omo": 19506, "prevalence": 20272, "highly": 3811, "prediction": 17547, "flu": 19857, "dot": 11089, "famously": 18172, "schooling": 14118, "28th": 15538, "##ington": 7853, "parcel": 20463, "barns": 25684, "croatian": 7963, "##ngen": 25997, "##load": 11066, "smoothing": 27045, "\u10da": 1447, "conservation": 5680, "buys": 23311, "1854": 8421, "reality": 4507, "pro": 4013, "##ndra": 17670, "goalkeeper": 9653, "landmark": 8637, "jed": 24401, "modeling": 11643, "expects": 24273, "canals": 17263, "u": 1057, "##yad": 25152, "dana": 11271, "narrowly": 11866, "robotics": 21331, "active": 3161, "##ude": 12672, "prefix": 17576, "harvey": 7702, "##lto": 23223, "[unused43]": 44, "##rag": 29181, "messy": 18307, "waters": 5380, "collector": 10018, "banquet": 19032, "travelled": 7837, "combines": 13585, "\u00a310": 26812, "modelled": 23364, "judgments": 26186, "cute": 10140, "##back": 5963, "innocent": 7036, "geek": 29294, "pot": 8962, "computed": 24806, "reflection": 9185, "660": 20982, "depicted": 8212, "##tose": 22282, "arrivals": 25470, "[unused784]": 789, "##ooped": 20671, "contention": 18974, "##vine": 20534, "avengers": 14936, "228": 22238, "insurgents": 20541, "politicians": 8801, "##jee": 16963, "involving": 5994, "mystical": 17529, "avoids": 26777, "##\u0b9a": 29919, "##\u304b": 30177, "room": 2282, "myth": 10661, "##trip": 24901, "exchange": 3863, "\u540c": 1794, "charts": 6093, "##nto": 13663, "missionaries": 11743, "##vin": 6371, "minimal": 10124, "cyclone": 11609, "\u0986": 1348, "siegel": 27996, "##sant": 22341, "2016": 2355, "thrill": 16959, "[unused802]": 807, "puebla": 27452, "##b": 2497, "lowlands": 26411, "##\u0458": 29761, "mania": 29310, "karel": 28021, "awakened": 20256, "expectation": 17626, "##cina": 28748, "palma": 23985, "not": 2025, "##6": 2575, "\u02b2": 1141, "speculated": 15520, "##igan": 10762, "determine": 5646, "hose": 21290, "archery": 21383, "rector": 10935, "astros": 22058, "expectations": 10908, "wine": 4511, "campo": 22339, "##dan": 7847, "##flict": 29301, "sin": 8254, "guessing": 16986, "##go": 3995, "sindh": 20284, "concepcion": 27331, "para": 11498, "##aba": 19736, "[unused521]": 526, "dimension": 9812, "communists": 13009, "inevitably": 21268, "filed": 6406, "maddox": 22730, "southbound": 19751, "minded": 13128, "newcastle": 8142, "messiah": 22112, "museo": 19713, "##bat": 14479, "maintained": 5224, "##cens": 19023, "gaelic": 11196, "flip": 11238, "\u2074": 1538, "fishery": 22880, "choosing": 10549, "##\u7af9": 30459, "firms": 9786, "##nzo": 25650, "gracefully": 28266, "inactivated": 15663, "marc": 7871, "strengthened": 13949, "justin": 6796, "sapphire": 21965, "vacation": 10885, "cambodia": 12899, "shadowy": 22801, "enlightenment": 16724, "##oro": 14604, "asphalt": 16295, "rios": 25836, "finest": 10418, "pow": 23776, "stifled": 27146, "tailored": 21727, "rocked": 14215, "regulate": 15176, "##ecure": 29150, "##vor": 14550, "exasperated": 24379, "pancakes": 28470, "mammals": 11993, "##tie": 9515, "blasts": 25829, "##\u548c": 30322, "shrink": 22802, "hottest": 20930, "##ification": 9031, "reopened": 11882, "netherlands": 4549, "jim": 3958, "clicked": 13886, "##zuka": 22968, "atop": 10234, "##tain": 18249, "##isse": 23491, "nrhp": 22424, "punches": 17957, "janice": 20029, "racist": 16939, "laboratory": 5911, "##led": 3709, "##mus": 7606, "##\u0638": 29829, "youngest": 6587, "foster": 6469, "[unused553]": 558, "lindsay": 12110, "bacteria": 10327, "##bner": 29388, "submarine": 6982, "\u2076": 1540, "clench": 26753, "kyle": 7648, "\u2264": 1608, "illustrating": 28252, "uber": 19169, "[unused285]": 290, "squinted": 17425, "steadily": 11328, "sham": 25850, "ia": 24264, "reported": 2988, "passenger": 4628, "ham": 10654, "##uously": 28078, "economic": 3171, "jaguar": 16490, "congratulations": 23156, "whimpered": 26184, "##gible": 18507, "##ski": 5488, "logged": 26618, "dusk": 18406, "##avian": 21654, "##zd": 26494, "worst": 5409, "bermuda": 13525, "##\u2089": 30085, "##org": 21759, "lil": 13451, "##sell": 23836, "brief": 4766, "##\u2663": 30151, "margarita": 24570, "rhythmic": 14797, "##riders": 28116, "cougars": 26317, "[unused176]": 181, "taxation": 14952, "hollis": 27477, "serialized": 27289, "teens": 13496, "indoors": 24274, "tying": 15233, "authorities": 4614, "time": 2051, "qualified": 4591, "write": 4339, "sober": 17358, "jd": 26219, "tend": 7166, "relaxing": 19613, "sleeper": 24372, "grasses": 21620, "descendant": 12608, "rags": 26346, "metals": 11970, "##kata": 29123, "garth": 21523, "\u30b9": 1707, "siren": 19558, "##hil": 19466, "steering": 9602, "delivery": 6959, "mustard": 23187, "miracle": 9727, "preventing": 10723, "emerged": 6003, "crow": 11465, "##\u043c": 29745, "##train": 23654, "##\u79cb": 30455, "gunnar": 26138, "ryan": 4575, "wizards": 16657, "jeremiah": 17526, "necklace": 13016, "victory": 3377, "drummond": 19266, "proportions": 19173, "wastewater": 28269, "funded": 6787, "resolutions": 18853, "unhappy": 12511, "statistics": 6747, "##gnon": 26977, "successors": 18530, "##sian": 17043, "##oman": 20778, "hepburn": 22004, "jing": 21536, "\u0433": 1183, "brightened": 28996, "sphere": 10336, "spirituality": 21244, "comments": 7928, "infinity": 15579, "ted": 6945, "she": 2016, "1719": 28162, "suggesting": 9104, "##orf": 16347, "[unused962]": 967, "salute": 17664, "284": 26871, "cell": 3526, "maitland": 25511, "chef": 10026, "wolfe": 14212, "\u0441": 1196, "deeper": 6748, "heard": 2657, "##vard": 25911, "resulting": 4525, "fran": 23151, "bowed": 11489, "cretaceous": 18122, "fairfield": 18986, "psi": 17816, "\u10d1": 1439, "fr": 10424, "chimney": 17321, "##ological": 10091, "laying": 10201, "venerable": 24541, "developers": 9797, "151": 16528, "dogs": 6077, "motorola": 29583, "kit": 8934, "gandhi": 12338, "##merie": 28677, "variation": 8386, "gershwin": 25600, "##nist": 26942, "##\u3042": 30172, "##izan": 27334, "negative": 4997, "##ote": 12184, "dade": 27647, "starboard": 25211, "flores": 17343, "jia": 25871, "fx": 23292, "hari": 21291, "young": 2402, "weapons": 4255, "deliver": 8116, "fridays": 26587, "sinclair": 11881, "bogota": 21240, "##islaus": 25678, "bat": 7151, "##lana": 16695, "hurricanes": 17035, "anonymous": 10812, "turned": 2357, "rand": 14566, "##board": 6277, "##ivo": 20984, "category": 4696, "onion": 20949, "energetic": 18114, "fair": 4189, "unwanted": 18162, "##yat": 26139, "indicted": 21801, "duncan": 7343, "positively": 13567, "##lies": 11983, "referred": 3615, "pressures": 15399, "ivanov": 26333, "lists": 7201, "99": 5585, "corporation": 3840, "hd": 10751, "vocational": 13099, "kaiser": 15676, "prosperous": 18241, "##ida": 8524, "apartment": 4545, "c2": 29248, "##oire": 26250, "bleed": 19501, "pigeon": 16516, "jillian": 27286, "lehigh": 23241, "brow": 8306, "##vb": 26493, "antique": 14361, "##leader": 19000, "##piece": 11198, "##mity": 16383, "utopia": 26425, "matteo": 24713, "visibility": 16476, "##ches": 8376, "1926": 4881, "vectors": 19019, "##tos": 13122, "proposed": 3818, "332": 29327, "diameter": 6705, "computing": 9798, "auschwitz": 24363, "circuits": 13782, "##cton": 28312, "##urance": 25863, "sis": 24761, "carolina": 3792, "badminton": 14618, "bit": 2978, "##ened": 6675, "actions": 4506, "##kla": 26086, "supposedly": 10743, "##lat": 20051, "suspicion": 10928, "kemp": 20441, "variance": 23284, "bacon": 11611, "unlikely": 9832, "##\u026b": 29686, "structure": 3252, "windows": 3645, "sabbath": 19546, "geologist": 21334, "tingle": 25792, "##hab": 25459, "reclaim": 24104, "fines": 21892, "tumors": 21434, "##ols": 27896, "refugee": 13141, "[unused258]": 263, "##\u1d47": 30033, "baffled": 29088, "unlimited": 14668, "mobilized": 27526, "subscribers": 17073, "punish": 16385, "hotspur": 25985, "dario": 26800, "workplace": 16165, "hobby": 17792, "domestic": 4968, "superiority": 19113, "wrongly": 29116, "inviting": 15085, "##icide": 21752, "[unused735]": 740, "guo": 22720, "sexually": 12581, "\u5742": 1803, "##woman": 10169, "inquiries": 27050, "39th": 22702, "natal": 17489, "drugged": 25483, "[unused36]": 37, "audiences": 9501, "stefano": 19618, "cartoon": 9476, "designed": 2881, "1990": 2901, "fig": 20965, "gottfried": 26142, "offences": 18421, "##fire": 10273, "female": 2931, "##el": 2884, "galileo": 21514, "disciplines": 12736, "cases": 3572, "examples": 4973, "##\u05db": 29798, "population": 2313, "##real": 22852, "harper": 8500, "gilmore": 22999, "sri": 5185, "newly": 4397, "tyson": 19356, "couldn": 2481, "249": 23628, "12th": 5940, "jagger": 25827, "unreleased": 13270, "chattanooga": 23351, "specification": 12827, "quantity": 11712, "ligue": 18374, "bedrooms": 18390, "\u1d43": 1496, "[unused473]": 478, "requirement": 9095, "voltage": 10004, "improvement": 7620, "##20": 11387, "conspicuous": 19194, "vanderbilt": 17066, "frequently": 4703, "##logies": 21615, "tremble": 20627, "buds": 26734, "disturbance": 16915, "dignitaries": 27960, "possessive": 22105, "departmental": 28912, "##q": 4160, "refined": 15514, "asher": 17243, "others": 2500, "chestnut": 15655, "106": 10114, "church": 2277, "blacks": 10823, "##nge": 15465, "tilting": 21788, "##imum": 28591, "##\u1106": 29995, "196": 20035, "mexican": 4916, "blush": 16688, "[unused430]": 435, "moniker": 21937, "rum": 19379, "spearheaded": 27721, "##39": 23499, "##fication": 10803, "panther": 15133, "stormy": 24166, "186": 19609, "##\u30ec": 30260, "##aar": 26526, "causing": 4786, "##nac": 18357, "##ary": 5649, "clap": 28618, "##ern": 11795, "uneasy": 15491, "mutter": 23457, "floated": 13715, "havoc": 22156, "experience": 3325, "##pon": 26029, "##8th": 28264, "nara": 27544, "staples": 24533, "lila": 19286, "clearance": 14860, "polynomials": 28175, "ensure": 5676, "flutter": 23638, "hearted": 18627, "##horn": 9769, "fridge": 16716, "composers": 9929, "schuster": 24253, "spanish": 3009, "##bm": 25526, "##apes": 29040, "dusty": 12727, "onset": 14447, "teaming": 27025, "topological": 24309, "25": 2423, "inferior": 14092, "1767": 21502, "chasing": 11777, "weave": 25308, "cremated": 28376, "rosemary": 18040, "##erson": 18617, "fetch": 18584, "meaningless": 25120, "rus": 22949, "prefecture": 7498, "47": 4700, "prick": 24858, "collaborators": 21315, "langdon": 15232, "greater": 3618, "gp": 14246, "\u0965": 1345, "barr": 19820, "##\u0924": 29859, "moonlight": 11986, "home": 2188, "##\u3088": 30210, "##ga": 3654, "garland": 17017, "1839": 10011, "##mata": 21022, "}": 1065, "##ept": 23606, "##gated": 11644, "vanishing": 24866, "##ive": 3512, "albeit": 12167, "05": 5709, "administration": 3447, "stanza": 29509, "##hala": 19531, "outward": 15436, "##kara": 16566, "clash": 13249, "##kaya": 20718, "##lessly": 10895, "possibly": 4298, "priest": 5011, "culture": 3226, "owl": 13547, "guerra": 24698, "rex": 10151, "malik": 14360, "taps": 25316, "springfield": 10493, "mach": 24532, "garnered": 13056, "##hue": 20169, "##ll": 3363, "\u2011": 1514, "lillian": 19344, "##rden": 18246, "##sel": 11246, "jan": 5553, "##\u2248": 30133, "##lastic": 28723, "ultraviolet": 26299, "sentiments": 23541, "pepsi": 27237, "arrays": 27448, "forgetting": 17693, "##\u09a7": 29901, "##\u05d5": 29792, "signs": 5751, "pleasantly": 27726, "[unused963]": 968, "produce": 3965, "monaco": 14497, "pennsylvania": 3552, "##eme": 21382, "reggie": 17963, "slash": 18296, "illinois": 4307, "ta": 11937, "##\u7537": 30438, "avila": 29079, "##\u3057": 30183, "relational": 28771, "brewery": 12161, "bottom": 3953, "embraced": 14218, "##liness": 20942, "[unused127]": 132, "atlanta": 5865, "##lock": 7878, "suffer": 9015, "disrepair": 27799, "craftsmen": 25736, "controversies": 25962, "concurrently": 15442, "ammonia": 25874, "libyan": 19232, "escorting": 23831, "toes": 10393, "amassed": 22151, "##slin": 22908, "reunion": 10301, "filmfare": 25648, "canon": 9330, "bishop": 3387, "annum": 28907, "heart": 2540, "subunit": 24312, "secretive": 28607, "expo": 16258, "efficiently": 18228, "announce": 14970, "\u30c1": 1710, "implicit": 24655, "roses": 10529, "smash": 15132, "allow": 3499, "gestures": 18327, "[unused887]": 892, "pulmonary": 21908, "sacramento": 11932, "resentment": 20234, "mornings": 16956, "lineman": 24062, "enjoyment": 20195, "garry": 21507, "siberia": 16881, "smith": 3044, "sending": 6016, "##vate": 16952, "equation": 8522, "casket": 25864, "augusto": 29085, "##ition": 22753, "mafia": 13897, "##\u00b1": 29657, "carving": 18441, "outrage": 19006, "##\u4e00": 30266, "muslim": 5152, "carlos": 5828, "noel": 10716, "##ndo": 15482, "cote": 17155, "most": 2087, "accidents": 13436, "drive": 3298, "preceded": 11677, "##ieri": 21939, "gertrude": 18734, "ny": 6396, "grace": 4519, "lucas": 6326, "##\u2086": 30082, "##thing": 20744, "pinch": 18392, "nc": 13316, "[unused659]": 664, "portraits": 9668, "euroleague": 26093, "hazel": 14015, "tuned": 15757, "rapid": 5915, "crucial": 10232, "furniture": 7390, "##dav": 29045, "tool": 6994, "visas": 24487, "##100": 18613, "##hman": 13890, "genetically": 19345, "penned": 17430, "narayan": 24331, "wendell": 24526, "richards": 9712, "odor": 19255, "motorway": 13119, "dunne": 26553, "axis": 8123, "mommy": 20565, "##gat": 20697, "drummer": 7101, "jennie": 27557, "##wani": 29092, "shepherd": 11133, "refuge": 9277, "cavalry": 5945, "berkeley": 8256, "ark": 15745, "asserted": 13647, "##\uff0e": 30517, "buzzed": 21377, "##cased": 28969, "noticeable": 17725, "applied": 4162, "manor": 6952, "demon": 5698, "##quisite": 24871, "semi": 4100, "##eon": 10242, "##dal": 9305, "male": 3287, "kenya": 7938, "contemporaries": 16682, "\u0dcf": 1408, "condoms": 29094, "meant": 3214, "1921": 4885, "##lateral": 28277, "po": 13433, "##idad": 27893, "toned": 27604, "text": 3793, "paramilitary": 22258, "soloist": 16504, "[unused508]": 513, "##itude": 18679, "carroll": 10767, "token": 19204, "1955": 3982, "[unused597]": 602, "thankful": 18836, "rusty": 13174, "rosen": 21701, "bethel": 19375, "smartphone": 26381, "imagined": 8078, "ligand": 27854, "##evic": 17726, "sectors": 11105, "ringing": 13060, "##cide": 27082, "##dant": 28210, "company": 2194, "southeastern": 8252, "accustomed": 17730, "##ricted": 20623, "gaze": 3657, "[unused822]": 827, "hurts": 13403, "guides": 12468, "tuscany": 23322, "prem": 26563, "mammal": 25476, "spotting": 27963, "mabel": 19486, "triangles": 27189, "michigan": 4174, "polished": 12853, "securing": 12329, "[unused21]": 22, "##life": 15509, "leonard": 7723, "music": 2189, "voiced": 6126, "reuben": 17294, "tumbled": 18303, "##rricular": 21231, "##fa": 7011, "unknown": 4242, "southern": 2670, "application": 4646, "attitude": 7729, "\uff1f": 1994, "cope": 11997, "colored": 6910, "[unused73]": 74, "cunning": 23626, "\u2075": 1539, "playable": 16854, "projectile": 25921, "[unused724]": 729, "batavia": 28917, "hailed": 16586, "barley": 21569, "laird": 21964, "behalf": 6852, "federation": 4657, "vie": 20098, "harmonic": 19452, "##ads": 19303, "keller": 16155, "pumpkin": 25730, "galveston": 26630, "[unused627]": 632, "amid": 13463, "##vir": 21663, "rio": 5673, "steel": 3886, "rays": 9938, "unbelievable": 23653, "##ifying": 11787, "1881": 7005, "chronology": 17873, "appleton": 26050, "march": 2233, "hilda": 21589, "goodwill": 22875, "seriously": 5667, "ieee": 15368, "bulge": 23708, "##sg": 28745, "lawsuit": 9870, "##bbly": 24200, "##com": 9006, "dell": 12418, "vengeance": 14096, "##ery": 7301, "##\u03bd": 16177, "740": 25833, "\u0290": 1136, "jam": 9389, "norse": 15342, "directory": 14176, "byzantine": 8734, "##ood": 17139, "canary": 17154, "fall": 2991, "##llum": 20845, "##nified": 25201, "[unused312]": 317, "rf": 21792, "families": 2945, "voter": 14303, "changing": 5278, "[unused863]": 868, "##oca": 24755, "mae": 11530, "[unused181]": 186, "encounter": 8087, "fantastic": 10392, "[unused956]": 961, "strikers": 26049, "lookout": 19052, "aiding": 24791, "fleets": 25515, "resembling": 15525, "serb": 20180, "economically": 15318, "2000": 2456, "germain": 19192, "1913": 5124, "kala": 26209, "handgun": 28497, "chalk": 16833, "reworked": 27575, "chaos": 8488, "pokemon": 20421, "ease": 7496, "##eri": 11124, "player": 2447, "##ruck": 29314, "minister": 2704, "boris": 11235, "remark": 17674, "alexa": 24969, "lineage": 13321, "bowled": 19831, "[unused171]": 176, "sideways": 12579, "licence": 11172, "sorbonne": 28452, "##cial": 13247, "contamination": 18701, "[unused850]": 855, "uttered": 20947, "crippled": 24433, "171": 18225, "##vara": 24516, "available": 2800, "failing": 7989, "winced": 15574, "madras": 12993, "grant": 3946, "lethal": 12765, "superficial": 23105, "bubbling": 25054, "session": 5219, "mohamed": 14467, "##quet": 12647, "researchers": 6950, "grove": 7676, "originals": 23728, "gunmen": 28932, "isaac": 7527, "29": 2756, "bobbie": 27731, "##lino": 25226, "heaving": 23907, "rates": 6165, "scratched": 15047, "narrative": 7984, "aroma": 23958, "barnett": 20073, "fashioned": 13405, "yourself": 4426, "1749": 24704, "anxiety": 10089, "vampire": 4393, "##dgets": 28682, "delight": 12208, "willis": 12688, "reared": 23295, "[unused940]": 945, "elders": 13376, "##vi": 5737, "[unused317]": 322, "##anov": 25417, "involvement": 6624, "graders": 23256, "[unused544]": 549, "##ado": 9365, "blinking": 15997, "convey": 16636, "slant": 27474, "teen": 9458, "sulawesi": 29078, "##bered": 22408, "discusses": 15841, "fellowships": 27298, "##tock": 17406, "compromise": 12014, "acquiring": 13868, "peyton": 17931, "##roll": 28402, "goose": 13020, "defended": 8047, "columbia": 3996, "mimic": 23150, "shouldn": 5807, "enroll": 25612, "brigade": 4250, "digitally": 18397, "brain": 4167, "considers": 10592, "meet": 3113, "\u30d2": 1719, "curate": 27530, "##ahu": 21463, "sar": 18906, "banned": 7917, "geared": 23636, "tackles": 10455, "geoffrey": 11023, "governmental": 10605, "cheng": 15898, "groan": 13001, "mandate": 11405, "register": 4236, "er": 9413, "sd": 17371, "ammunition": 9290, "management": 2968, "[unused22]": 23, "##gpur": 25758, "pulled": 2766, "hummed": 26747, "jens": 25093, "potter": 10693, "roaring": 17197, "\u79c0": 1928, "##plane": 11751, "\u30ad": 1701, "##mes": 7834, "coefficient": 19064, "cemeteries": 20973, "renewal": 14524, "birthday": 5798, "goldman": 17765, "chewing": 17492, "salem": 10389, "##nical": 20913, "folds": 15439, "die": 3280, "\u0997": 1355, "conflict": 4736, "thrust": 7400, "firearm": 23646, "##eded": 19082, "finale": 9599, "honored": 8686, "gallant": 26984, "katz": 20729, "nudged": 18666, "reacts": 27325, "tome": 21269, "draft": 4433, "convenience": 15106, "westphalia": 22952, "monde": 23117, "corrections": 20983, "jonah": 15617, "[unused738]": 743, "hawker": 23937, "socialism": 14649, "##ret": 13465, "chocolate": 7967, "fitzgerald": 11864, "commandant": 15254, "arranged": 5412, "horde": 21038, "appears": 3544, "disney": 6373, "utility": 9710, "duel": 14216, "throbbed": 27714, "seriousness": 27994, "persuasion": 27577, "naia": 29511, "cassidy": 13737, "[unused318]": 323, "##hesive": 21579, "breakdown": 12554, "dissent": 24116, "city": 2103, "##orra": 24285, "5000": 13509, "medial": 23828, "begs": 27591, "beetle": 7813, "over": 2058, "grandparents": 14472, "\u20b1": 1575, "neighbour": 20065, "pe": 21877, "ae": 29347, "70": 3963, "shouts": 15701, "downloadable": 26720, "ja": 14855, "admiration": 17005, "ferries": 20157, "amend": 27950, "##tructing": 26310, "colombia": 7379, "supervisory": 26653, "testify": 19919, "macquarie": 23903, "cocked": 13179, "soared": 29127, "ian": 4775, "strand": 11226, "olds": 19457, "[unused881]": 886, "nightstand": 23135, "nikki": 14470, "1632": 28216, "[unused952]": 957, "coaching": 7748, "cheat": 21910, "transparency": 16987, "blooded": 26064, "snyder": 17840, "##xide": 19491, "preceding": 11003, "view": 3193, "risk": 3891, "pajamas": 27621, "reactive": 22643, "quotes": 16614, "mathematics": 5597, "##min": 10020, "carpet": 10135, "wig": 24405, "##oit": 28100, "schooner": 21567, "##making": 12614, "##sler": 20590, "##por": 17822, "mandir": 22700, "\u092a": 1328, "soup": 11350, "majority": 3484, "startled": 9696, "##\u0294": 29705, "##umatic": 25360, "emil": 16243, "maynard": 22130, "matthews": 12351, "abusive": 20676, "##tom": 20389, "mickey": 11021, "encompassing": 19129, "monitored": 17785, "tractor": 16358, "allocation": 16169, "gills": 29468, "lin": 11409, "aaa": 13360, "elites": 27021, "automatically": 8073, "cherokee": 13796, "backside": 25065, "par": 11968, "growled": 8881, "cotton": 6557, "crawl": 13529, "atrocities": 23482, "lastly": 22267, "eyeing": 19285, "smyth": 28103, "uta": 28981, "middleweight": 18741, "mls": 16287, "affair": 6771, "restore": 9239, "cabinets": 20053, "##\u203f": 30069, "tortured": 12364, "stoke": 13299, "\u3075": 1674, "respondents": 25094, "reg": 19723, "mark": 2928, "wearing": 4147, "schemes": 11683, "etymology": 26803, "cis": 20199, "##written": 15773, "predecessors": 16372, "archaic": 19261, "locks": 11223, "muhammad": 7187, "sui": 24086, "survived": 5175, "##\u85e4": 30470, "[unused660]": 665, "##rned": 21119, "[unused640]": 645, "bible": 6331, "asking": 4851, "##rigue": 27611, "gloves": 11875, "gain": 5114, "stephenson": 19789, "euros": 19329, "ripe": 22503, "bred": 13680, "teenager": 10563, "entrusted": 18011, "##so": 6499, "combination": 5257, "hung": 5112, "minors": 18464, "gateway": 11909, "undertaker": 27568, "##arat": 25879, "seaside": 20276, "picks": 11214, "instituted": 14948, "gallo": 25624, "##pee": 28084, "##tors": 6591, "owed": 12232, "agreeing": 16191, "recounts": 23412, "indoor": 7169, "##\u6751": 30404, "prospects": 16746, "marlins": 27055, "derivatives": 16942, "gladstone": 21765, "##kling": 20260, "1662": 25909, "basel": 14040, "patty": 17798, "bids": 20723, "upwards": 14873, "1841": 9840, "qualification": 8263, "##54": 27009, "##\u062c": 29819, "[unused618]": 623, "highness": 17114, "religions": 11822, "malone": 16321, "herrera": 23527, "lifetime": 6480, "curses": 23897, "##ddy": 14968, "1651": 29077, "flawless": 27503, "corn": 9781, "passing": 4458, "edict": 24754, "118": 12963, "amended": 13266, "colchester": 20115, "[unused402]": 407, "##awan": 25903, "##gree": 28637, "renault": 14605, "susanna": 26681, "murals": 19016, "milford": 22622, "1975": 3339, "get": 2131, "sniffed": 18013, "baba": 14208, "inventory": 12612, "luis": 6446, "proposes": 17146, "##night": 15864, "seasonal": 12348, "263": 25246, "database": 7809, "fiber": 11917, "[unused283]": 288, "88": 6070, "bryson": 26845, "swearing": 25082, "unsuitable": 25622, "showtime": 23811, "##rf": 12881, "mercedes": 10793, "nah": 20976, "amazon": 9733, "##apple": 23804, "benefit": 5770, "##\u00f8y": 27688, "holmes": 9106, "baroness": 21479, "juliet": 13707, "simi": 28684, "figurative": 29407, "messages": 7696, "1800s": 19878, "vibrations": 22755, "resume": 13746, "fuels": 20145, "massacre": 9288, "unfortunate": 15140, "##reen": 28029, "mandarin": 15831, "melvin": 20993, "monetary": 12194, "##ddin": 18277, "##17": 16576, "scripts": 14546, "pledged": 16970, "##\u30e5": 30255, "beck": 10272, "##itte": 27100, "membrane": 10804, "proposition": 14848, "ascension": 18071, "sore": 14699, "landslide": 20148, "box": 3482, "6": 1020, "bray": 19743, "\u1d47": 1497, "##ciful": 26336, "tame": 24763, "##tens": 25808, "android": 11924, "broadly": 13644, "ticking": 28561, "ff": 21461, "##\u6b62": 30413, "##illy": 20577, "meteorological": 20557, "rational": 11581, "latvia": 12429, "phantom": 11588, "\u0647": 1297, "##agawa": 20812, "harshly": 21052, "bribe": 26470, "##dar": 7662, "methodology": 16134, "outputs": 27852, "problems": 3471, "bacterial": 17341, "##pta": 22799, "\u306d": 1670, "tracking": 9651, "motives": 17108, "inactive": 16389, "guarded": 13802, "##tte": 4674, "device": 5080, "##uated": 16453, "grease": 21956, "palmer": 8809, "berlin": 4068, "expensive": 6450, "tree": 3392, "bordered": 11356, "enveloped": 25407, "solemnly": 26294, "final": 2345, "##tten": 25970, "##ennial": 22929, "collegiate": 9234, "algeria": 11337, "##arm": 27292, "##vie": 13469, "affluent": 22666, "dolly": 19958, "razor": 15082, "sleeves": 15114, "leads": 5260, "frog": 10729, "tod": 28681, "owens": 14824, "##isch": 19946, "transverse": 18323, "mohan": 18529, "steer": 20634, "[unused664]": 669, "slowing": 18068, "colorful": 14231, "##now": 19779, "##rc": 11890, "##re": 2890, "##\uff09": 30514, "elle": 15317, "retribution": 25928, "assassin": 12025, "##ig": 8004, "aztec": 25245, "leonardo": 14720, "##rosis": 29166, "jays": 18930, "enjoys": 15646, "wilkins": 22745, "chris": 3782, "newest": 14751, "diver": 17856, "math": 8785, "chopra": 28826, "goldberg": 18522, "##tec": 26557, "18": 2324, "outta": 24955, "perceptions": 23271, "establishes": 21009, "did": 2106, "dinners": 29236, "68": 6273, "##wk": 26291, "rodeo": 18936, "##ous": 3560, "##ales": 23266, "##bow": 18912, "open": 2330, "jade": 12323, "calderon": 28129, "1891": 6607, "winnipeg": 11093, "##oc": 10085, "decidedly": 27873, "rights": 2916, "occurrence": 14404, "cast": 3459, "iraqi": 8956, "yawned": 27626, "painters": 12499, "##athan": 29246, "\u0456": 1213, "marathon": 8589, "shakes": 10854, "##m": 2213, "##tile": 15286, "imposed": 9770, "josef": 12947, "##lash": 27067, "##\u0e17": 29948, "engages": 24255, "pulp": 16016, "consultative": 28581, "legendary": 8987, "1988": 2997, "suspicious": 10027, "##culus": 28703, "adjusted": 10426, "##wski": 10344, "555": 29541, "finely": 22126, "lia": 22393, "weakly": 17541, "cruz": 8096, "##wash": 28556, "[unused78]": 79, "##bbled": 12820, "propeller": 15692, "slovak": 12747, "expulsion": 18272, "boating": 23639, "##ckey": 29183, "snoop": 29044, "pandora": 19066, "mumbled": 11567, "125": 8732, "bellevue": 26756, "candi": 27467, "annette": 22521, "hollow": 8892, "##idi": 28173, "westbound": 24717, "fabric": 8313, "grain": 8982, "scarlet": 11862, "polar": 11508, "dances": 11278, "drama": 3689, "manufactures": 22027, "##ears": 26492, "scandals": 29609, "##oulos": 28262, "##kir": 23630, "purple": 6379, "emphasis": 7902, "abnormalities": 28828, "affiliated": 6989, "lau": 21360, "taboo": 27505, "##rug": 26549, "delaware": 8452, "revelation": 11449, "clary": 13145, "tan": 9092, "fetal": 25972, "##otho": 29288, "sony": 8412, "ceasefire": 26277, "274": 25586, "report": 3189, "dread": 14436, "roughly": 5560, "1692": 28622, "hunter": 4477, "##aint": 22325, "napoleonic": 18813, "elegant": 11552, "ankles": 15392, "barbie": 22635, "ignorance": 18173, "shelby": 15294, "records": 2636, "##worm": 22769, "lama": 18832, "##\u30fb": 30264, "##oat": 16503, "tuck": 18029, "[unused44]": 45, "neglected": 15486, "weeds": 20777, "bolton": 12118, "[unused352]": 357, "\u30e5": 1729, "homo": 24004, "##litz": 24725, "##nous": 18674, "ritter": 23168, "registered": 5068, "mira": 18062, "##57": 28311, "edged": 13011, "reconcile": 21063, "likes": 7777, "##rop": 18981, "##26": 23833, "martins": 19953, "vogue": 17734, "lt": 8318, "traditional": 3151, "torches": 24711, "gymnastics": 14002, "edward": 3487, "##\u0446": 29751, "uptown": 28539, "traffic": 4026, "##\u2665": 30152, "howl": 22912, "piercing": 14628, "division": 2407, "test": 3231, "proposal": 6378, "roi": 25223, "li": 5622, "\u5f18": 1843, "##km": 22287, "explosions": 18217, "pulling": 4815, "flipped": 9357, "takahashi": 25585, "cipher": 27715, "cool": 4658, "##personal": 28823, "institutional": 12148, "shelley": 15828, "adaptive": 19293, "participating": 8019, "nova": 6846, "##.": 29625, "birmingham": 6484, "closest": 7541, "attendance": 5270, "##egan": 20307, "##nium": 14907, "bicycle": 10165, "restrictive": 25986, "exclusive": 7262, "versailles": 18346, "formally": 6246, "cultivated": 13237, "sketches": 12741, "study": 2817, "din": 11586, "shropshire": 19322, "##uting": 20807, "lexie": 24123, "frail": 25737, "easiest": 25551, "grotesque": 27707, "[unused320]": 325, "pale": 5122, "examiner": 19684, "##\u05d6": 29793, "##\u0289": 29697, "##ec": 8586, "majesty": 9995, "##teacher": 24741, "product": 4031, "cold": 3147, "investigating": 11538, "altitude": 7998, "truck": 4744, "boogie": 21495, "engineered": 13685, "\u6b62": 1887, "biomass": 28148, "mile": 3542, "##ulate": 9869, "graphical": 20477, "##ocating": 27483, "[unused157]": 162, "enlisted": 9417, "oleg": 25841, "trenton": 17148, "responding": 14120, "covers": 4472, "donor": 15009, "blazing": 17162, "analysis": 4106, "##ctuated": 25638, "offices": 4822, "##works": 9316, "weasel": 29268, "renaissance": 8028, "sang": 6369, "homosexuality": 15949, "officials": 4584, "spun": 7455, "frigate": 15437, "fletcher": 10589, "frowned": 7335, "factories": 11123, "arguing": 9177, "directional": 20396, "probing": 28664, "\u0621": 1269, "\u30c3": 1711, "##\u4ec1": 30284, "philanthropy": 29291, "##irs": 18894, "##iving": 14966, "[unused658]": 663, "cdp": 8561, "kind": 2785, "sidewalk": 11996, "gloom": 24067, "##nosis": 27109, "punjabi": 17498, "##wang": 16600, "##tein": 9589, "hades": 23003, "bored": 11471, "##put": 18780, "depart": 18280, "remembered": 4622, "darkly": 27148, "encouragement": 15846, "evan": 9340, "prelude": 19508, "knowledge": 3716, "howe": 13358, "roared": 14242, "##fusion": 20523, "flying": 3909, "screen": 3898, "popped": 10538, "##hoot": 23416, "##rella": 21835, "prakash": 22233, "flicked": 12777, "##\u10d8": 29981, "examinations": 14912, "protest": 6186, "##lam": 10278, "feedback": 12247, "ally": 9698, "\u2086": 1553, "near": 2379, "swarm": 21708, "##mt": 20492, "##hon": 8747, "dong": 11947, "[unused64]": 65, "foreign": 3097, "roommate": 18328, "researcher": 10753, "incorporation": 16935, "kicks": 14590, "sho": 26822, "##ades": 18673, "democrat": 7672, "1786": 17436, "sewing": 22746, "renovated": 10601, "libraries": 8860, "overs": 15849, "rural": 3541, "complex": 3375, "partners": 5826, "##chrome": 20366, "reeve": 20726, "##\u66f2": 30396, "displays": 8834, "scene": 3496, "bonds": 9547, "accomplishment": 24718, "muzzle": 17750, "##iling": 16281, "critics": 4401, "defending": 6984, "translators": 28396, "faulty": 28927, "ensemble": 7241, "mg": 11460, "seminole": 28909, "##cloth": 23095, "##oured": 16777, "saxons": 28267, "biting": 12344, "bourbon": 15477, "guaranteed": 12361, "##fulness": 20938, "880": 26839, "picking": 8130, "1785": 17262, "abilities": 7590, "filipino": 10275, "eliminating": 15349, "judas": 25326, "##\u060c": 29814, "talents": 11725, "streamlined": 29445, "source": 3120, "chained": 22075, "boasted": 23390, "fraser": 9443, "##\u3086": 30209, "skier": 21294, "feather": 15550, "[unused989]": 994, "##sb": 19022, "jamie": 6175, "inquisition": 24638, "\u0987": 1349, "wooded": 17172, "canadiens": 21247, "##von": 17789, "conduct": 6204, "hungary": 5872, "icon": 12696, "fed": 7349, "guyana": 18786, "1746": 24507, "distinguished": 5182, "governments": 6867, "sized": 7451, "##lium": 21816, "##graphy": 12565, "##eak": 25508, "jerseys": 28772, "dei": 14866, "mortar": 14335, "are": 2024, "franciscan": 19420, "##bid": 17062, "[unused277]": 282, "jupiter": 13035, "bringing": 5026, "22": 2570, "##ave": 10696, "temps": 29023, "bohemian": 18063, "coefficients": 21374, "##biology": 21685, "mechanisms": 10595, "##gement": 20511, "wood": 3536, "midday": 22878, "jensen": 14857, "screwed": 14180, "stunt": 15412, "trevor": 8672, "##vary": 21639, "##grounds": 28951, "differs": 12980, "resolution": 5813, "assemble": 21365, "##cion": 10446, "dismissed": 7219, "operator": 6872, "table": 2795, "[unused853]": 858, "roxy": 23682, "swam": 16849, "income": 3318, "crater": 11351, "darkest": 23036, "mortally": 26495, "backseat": 19978, "fiddle": 15888, "wines": 14746, "1667": 27643, "##rgos": 22280, "consul": 11801, "pu": 16405, "empowerment": 23011, "trusts": 20278, "thai": 7273, "professors": 12655, "[unused715]": 720, "ic": 24582, "[unused330]": 335, "products": 3688, "animal": 4111, "traders": 13066, "##thic": 23048, "[unused719]": 724, "\u570b": 1800, "pulpit": 23134, "joining": 5241, "alicia": 15935, "[unused675]": 680, "plug": 13354, "specialty": 12233, "##fest": 14081, "##\u0251": 29677, "##roving": 22046, "living": 2542, "2011": 2249, "personal": 3167, "illuminating": 27816, "possible": 2825, "exits": 16639, "##\u98df": 30504, "netflix": 20907, "trader": 17667, "delhi": 6768, "backstroke": 28373, "grocery": 13025, "finalized": 23575, "\u2282": 1610, "cristina": 22246, "##vity": 24872, "local": 2334, "\u694a": 1883, "hypothesis": 10744, "enthusiasts": 20305, "orbit": 8753, "rules": 3513, "[unused981]": 986, "vu": 24728, "drinking": 5948, "84": 6391, "viable": 14874, "ferreira": 26135, "[unused551]": 556, "[unused145]": 150, "##screen": 18182, "restart": 23818, "distracted": 11116, "##brand": 23544, "##enes": 28553, "##some": 14045, "hunt": 5690, "feature": 3444, "tapes": 13324, "motel": 14901, "phone": 3042, "lightning": 7407, "##force": 14821, "##lot": 10994, "grip": 6218, "anita": 12918, "academia": 16926, "globally": 16452, "manly": 19385, "\u0996": 1354, "rag": 17768, "tile": 14090, "##ase": 11022, "literacy": 8433, "320": 13710, "flemish": 15427, "webster": 11635, "regarded": 5240, "focusing": 7995, "tongue": 4416, "lucifer": 24184, "accurately": 14125, "stores": 5324, "##sr": 21338, "glowing": 10156, "our": 2256, "often": 2411, "entrepreneur": 10670, "[unused756]": 761, "cumberland": 12310, "ap": 9706, "disabled": 9776, "marrow": 24960, "soviet": 3354, "opposition": 4559, "appropriated": 29223, "tomas": 12675, "##enas": 26474, "cheung": 22632, "contributions": 5857, "##islav": 19834, "1860": 7313, "smackdown": 22120, "elijah": 14063, "contribution": 6691, "newtown": 26382, "washing": 12699, "tsar": 17608, "principally": 16552, "fast": 3435, "rowe": 20538, "##orno": 26295, "##edd": 22367, "rosenthal": 29062, "[unused0]": 1, "thoroughbred": 18359, "market": 3006, "burger": 15890, "repeal": 21825, "cooperative": 10791, "\u043f": 1194, "saskatoon": 25447, "maestro": 25270, "rebirth": 22785, "juveniles": 25406, "##ware": 8059, "mood": 6888, "##cology": 19824, "pm": 7610, "lausanne": 22256, "chartered": 12443, "##med": 7583, "thumping": 25996, "beat": 3786, "plain": 5810, "kw": 6448, "confederation": 11078, "##won": 19291, "angle": 6466, "[unused165]": 170, "[unused70]": 71, "[unused555]": 560, "rattling": 26347, "remington": 25282, "heller": 25038, "notre": 10289, "earning": 7414, "##tting": 13027, "coating": 18898, "shame": 9467, "##han": 4819, "allmusic": 10477, "weakness": 11251, "feminist": 10469, "curled": 8188, "##aki": 8978, "passageway": 27336, "ltd": 5183, "bank": 2924, "colourful": 26102, "unmarried": 17204, "overboard": 27089, "finn": 9303, "moans": 24675, "\u116f": 1479, "representing": 5052, "##\u307b": 30202, "\u00b4": 1084, "colossal": 29523, "mass": 3742, "tasked": 13487, "electricity": 6451, "ripley": 25231, "##rmi": 28550, "hysterical": 25614, "[unused852]": 857, "gestured": 11574, "##cure": 23887, "\u9234": 1965, "##tub": 28251, "##owing": 14138, "shortlisted": 21353, "prompted": 9469, "productive": 13318, "ghanaian": 27202, "masonry": 18103, "lowered": 6668, "119": 13285, "lowland": 15234, "\u30ef": 1736, "##iate": 13143, "wright": 6119, "loops": 15932, "##pod": 27633, "##wig": 16279, "\u1175": 1483, "sexual": 4424, "grants": 8624, "shri": 14880, "plane": 4946, "##nna": 9516, "hurry": 9241, "flare": 17748, "ross": 5811, "walnut": 18489, "districts": 4733, "##\u8ecd": 30481, "insurrection": 27860, "265": 20549, "gov": 18079, "kevin": 4901, "##hog": 25852, "protection": 3860, "hooper": 23717, "dynamo": 17205, "##\u110c": 30000, "\u611b": 1853, "##ning": 5582, "hotel": 3309, "stokes": 18716, "136": 15407, "settler": 18556, "##ut": 4904, "island": 2479, "hires": 28208, "column": 5930, "##\u0443": 29748, "1764": 21488, "##\u5fd7": 30377, "##fp": 22540, "quiet": 4251, "nathaniel": 13961, "confederates": 24627, "indicate": 5769, "prestigious": 8919, "channel": 3149, "dixie": 18910, "##izes": 10057, "expeditionary": 15372, "mine": 3067, "##\u0932": 29870, "occupation": 6139, "kingdoms": 12028, "cruise": 8592, "sm": 15488, "mas": 16137, "##\u30e1": 30252, "##non": 8540, "malacca": 28481, "krishna": 10871, "##nage": 27031, "mtv": 8692, "pun": 26136, "##oka": 12352, "posting": 14739, "years": 2086, "fish": 3869, "explains": 7607, "admit": 6449, "storylines": 22628, "\u0ba8": 1386, "repay": 24565, "status": 3570, "##75": 23352, "##cam": 28727, "turkey": 4977, "##wala": 23877, "testimony": 10896, "##arth": 22425, "secret": 3595, "gui": 26458, "indonesia": 6239, "[unused109]": 114, "conditioned": 22442, "recent": 3522, "ashton": 13772, "[unused919]": 924, "isbn": 3175, "appreciated": 12315, "1712": 28460, "reelected": 20847, "stimulus": 19220, "doctor": 3460, "cooler": 14976, "ravine": 23188, "debra": 28762, "fierce": 9205, "##ais": 15593, "steppe": 29096, "humour": 17211, "childbirth": 27162, "captive": 12481, "introducing": 10449, "excursion": 26144, "ale": 15669, "##acing": 26217, "malicious": 24391, "involuntary": 26097, "##lese": 24527, "rms": 29311, "died": 2351, "##zman": 24340, "trailing": 12542, "cleveland": 6044, "verses": 11086, "vlad": 19163, "fancy": 11281, "countdown": 18144, "saw": 2387, "certified": 7378, "recommended": 6749, "hour": 3178, "maverick": 27187, "[unused696]": 701, "migratory": 22262, "forgiveness": 17213, "##rasia": 27839, "gunn": 22079, "upgrading": 25925, "grandson": 7631, "cleaning": 9344, "\u1d48": 1498, "##less": 3238, "beyonce": 20773, "fellows": 13572, "postal": 10690, "##ntial": 19909, "linear": 7399, "granddaughter": 12787, "##rest": 28533, "bidding": 17534, "breakthrough": 12687, "motion": 4367, "chateau": 11874, "##vyn": 23487, "cuban": 9642, "##dda": 25062, "theological": 9208, "illegal": 6206, "[unused823]": 828, "scraped": 20378, "##ples": 21112, "wife": 2564, "navy": 3212, "techno": 21416, "##ibly": 17296, "##reate": 29313, "highlighted": 11548, "##city": 12972, "##rift": 16338, "##lines": 12735, "ava": 10927, "scare": 12665, "\u0452": 1211, "palatine": 22202, "devotees": 22707, "spraying": 29035, "prep": 17463, "bliss": 13670, "##\u771f": 30447, "debuts": 26740, "bellamy": 25544, "bearded": 23905, "prop": 17678, "\u1d2e": 1491, "during": 2076, "citrus": 20418, "gillian": 22358, "##gra": 17643, "try": 3046, "[unused30]": 31, "chester": 8812, "hive": 26736, "prostitution": 15016, "8": 1022, "##rar": 19848, "amino": 13096, "##ssing": 18965, "##due": 20041, "##mbled": 23931, "##fort": 13028, "vijay": 17027, "curvature": 25045, "castro": 11794, "automobiles": 19207, "inadequate": 14710, "reborn": 24910, "schizophrenia": 23683, "\u2f65": 1634, "##sitor": 28307, "fours": 23817, "accurate": 8321, "pseudo": 18404, "oven": 17428, "irony": 19728, "symmetry": 14991, "radha": 26498, "##\u0452": 29758, "shake": 6073, "curved": 9203, "assent": 27195, "[unused29]": 30, "reconciled": 28348, "made": 2081, "filtered": 21839, "##pi": 8197, "plant": 3269, "f": 1042, "pentagon": 20864, "musically": 21385, "##wl": 13668, "karen": 8129, "execution": 7781, "training": 2731, "##i": 2072, "hinges": 25484, "plurality": 29018, "withstand": 19319, "visitor": 10367, "intent": 7848, "wince": 29585, "inhabited": 9613, "earthquakes": 17932, "blown": 10676, "agency": 4034, "seniors": 15995, "nawab": 26543, "leisure": 12257, "militant": 16830, "tears": 4000, "cabins": 20321, "reindeer": 29495, "invasive": 17503, "backdrop": 18876, "lame": 20342, "penny": 10647, "sobbing": 20040, "lynne": 26938, "covered": 3139, "thailand": 6504, "buddy": 8937, "storms": 12642, "flee": 10574, "fame": 4476, "advises": 25453, "powerplant": 19526, "chet": 25157, "magnesium": 24983, "patriots": 11579, "[unused836]": 841, "shenzhen": 26555, "accelerator": 23468, "##gled": 11533, "##fly": 14151, "sailed": 7434, "##bour": 25127, "shed": 8328, "investigation": 4812, "portuguese": 5077, "##usa": 10383, "jungle": 8894, "middlesbrough": 21655, "penis": 19085, "##stick": 21354, "calves": 28023, "duluth": 28218, "senegal": 16028, "genesis": 11046, "shimmering": 22349, "##blood": 26682, "##dable": 20782, "1624": 28531, "pigeons": 27567, "haul": 14655, "depicts": 11230, "jimmie": 24671, "gunslinger": 29274, "revenge": 7195, "divers": 18612, "insurgency": 23939, "liberties": 18271, "aryan": 26030, "osaka": 13000, "duration": 9367, "shelves": 15475, "callum": 15229, "##ei": 7416, "court": 2457, "ambient": 17093, "harding": 15456, "ou": 15068, "kristen": 22435, "haydn": 25595, "##bled": 23242, "##stones": 29423, "[unused772]": 777, "exploded": 9913, "mans": 16042, "##ca": 3540, "assyrian": 19950, "sullivan": 7624, "[unused358]": 363, "vein": 12818, "principles": 6481, "fused": 19660, "barak": 27739, "believer": 24591, "byrd": 17845, "sides": 3903, "anzac": 29224, "manufacturers": 8712, "flirt": 27978, "##rium": 18802, "##hrer": 17875, "fulbright": 26695, "\u0916": 1316, "##\u062e": 29821, "[unused407]": 412, "adherents": 25712, "dockyard": 24874, "daze": 28918, "biceps": 27947, "ladder": 10535, "sykes": 23531, "##kos": 15710, "angola": 13491, "[unused413]": 418, "grow": 4982, "ballast": 28030, "rhythm": 6348, "humanities": 11406, "insider": 25297, "##dder": 20791, "limit": 5787, "reelection": 17648, "[unused462]": 467, "pornography": 19378, "##la": 2721, "deserts": 28858, "##ried": 11998, "fry": 14744, "##\u0639": 29830, "receiving": 4909, "rivalry": 10685, "dammit": 20878, "##laya": 22923, "invading": 17657, "patrick": 4754, "workshop": 8395, "finland": 6435, "\u5cf6": 1833, "##\u044c": 23742, "continue": 3613, "emotionally": 14868, "1920s": 6641, "rhetoric": 17871, "stayed": 4370, "eleanor": 10508, "leary": 22986, "communicate": 10639, "unicef": 29073, "nielsen": 13188, "##itan": 25451, "sites": 4573, "\u0927": 1326, "\u30b3": 1704, "##lar": 8017, "icao": 18055, "1st": 3083, "gould": 14913, "trumpets": 26506, "tipperary": 17333, "##nish": 24014, "tighter": 12347, "christi": 21359, "##ving": 6455, "##bs": 5910, "357": 26231, "caressed": 21473, "evans": 6473, "immune": 11311, "interpret": 17841, "banners": 23562, "minions": 28071, "proficient": 27029, "layer": 6741, "whispering": 13550, "britannia": 24677, "hadley": 21681, "substituted": 17316, "experiment": 7551, "eligibility": 11395, "yiddish": 20112, "wasting": 18313, "bea": 26892, "##\u590f": 30334, "tucker": 9802, "chick": 14556, "henrietta": 20775, "part": 2112, "gonzaga": 26840, "west": 2225, "\u6c35": 1894, "espana": 20678, "darting": 24567, "preferences": 18394, "##bia": 11607, "restarted": 25606, "[unused455]": 460, "sofia": 8755, "##rup": 21531, "##ting": 3436, "affairs": 3821, "unreasonable": 29205, "##ptive": 24971, "formulation": 20219, "##zin": 17168, "monique": 26194, "cinemas": 19039, "1867": 7517, "comrades": 19033, "openly": 10132, "curtis": 9195, "virtually": 8990, "##flies": 24019, "authorization": 20104, "outlook": 17680, "##eet": 15558, "bulldog": 28628, "16": 2385, "joyce": 11830, "##que": 4226, "archdiocese": 12658, "archaeological": 7611, "##haw": 14238, "[unused667]": 672, "cinderella": 21686, "outfits": 22054, "##es": 2229, "thessaloniki": 23162, "priscilla": 25193, "prix": 5431, "retrospective": 15354, "relatives": 9064, "brigadier": 9900, "##baldi": 28807, "lateral": 11457, "redemption": 18434, "nair": 22525, "crises": 25332, "[unused988]": 993, "heroin": 19690, "[unused947]": 952, "##mmer": 15810, "announcement": 8874, "bonfire": 28698, "##ations": 10708, "ts": 24529, "iberian": 21988, "indication": 12407, "grows": 7502, "sobs": 21503, "[unused15]": 16, "1000": 6694, "televised": 13762, "favors": 21191, "rocco": 28167, "payload": 18093, "##mps": 25370, "crete": 19111, "\u0e15": 1411, "##verance": 21998, "frank": 3581, "##ti": 3775, "##\u0192": 29675, "hk": 22563, "idiots": 28781, "finger": 4344, "##tray": 28473, "paralympics": 15600, "holes": 8198, "rebellion": 7417, "amir": 18904, "centimeters": 18119, "eds": 11985, "##logie": 27095, "technologies": 6786, "continental": 6803, "syndicated": 13889, "##aurus": 17342, "\u2153": 1581, "[unused748]": 753, "laws": 4277, "vacuum": 11641, "encoded": 12359, "cobra": 16604, "decide": 5630, "cheyenne": 17778, "elvis": 12280, "[unused451]": 456, "doubtful": 21888, "larvae": 9673, "issn": 23486, "ix": 11814, "hart": 7530, "play": 2377, "cumulative": 23260, "johannes": 12470, "sticky": 15875, "pioneer": 7156, "##lining": 16992, "nose": 4451, "coherent": 18920, "blonde": 9081, "\u6709": 1873, "##\u1d2c": 30026, "##eft": 29218, "cairo": 11096, "bothering": 17067, "error": 7561, "kicker": 22652, "cara": 14418, "innocence": 12660, "shore": 5370, "\u10d3": 1441, "jonny": 26937, "whom": 3183, "##zek": 24506, "backing": 5150, "licensed": 7000, "##jure": 25243, "\u2191": 1584, "katie": 9734, "cochran": 28506, "socialist": 6102, "silenced": 25030, "2d": 14134, "##qui": 15549, "resolved": 10395, "rifle": 5883, "banged": 22843, "brunswick": 9192, "employs": 13495, "brittle": 24650, "shudder": 18261, "trustees": 9360, "[unused539]": 544, "organize": 10939, "sympathetic": 13026, "550": 13274, "porn": 22555, "hovered": 18190, "karnataka": 12092, "\u5948": 1814, "\u00a1": 1067, "theodor": 21448, "chapel": 4970, "connolly": 21018, "fcc": 14420, "contested": 7259, "functions": 4972, "##amine": 19915, "gene": 4962, "##sir": 29481, "madeira": 27309, "zipper": 22082, "primal": 22289, "fumbled": 20054, "gazed": 11114, "loretta": 28493, "tactics": 9887, "veronica": 13133, "youth": 3360, "[unused665]": 670, "conrad": 10931, "juan": 5348, "images": 4871, "169": 18582, "[unused751]": 756, "nonsense": 14652, "strange": 4326, "withdrew": 6780, "grenada": 29153, "carvings": 22838, "gets": 4152, "blend": 12586, "\u21cc": 1590, "##nl": 20554, "1780": 15051, "##rce": 19170, "appropriately": 23263, "##\u6a4b": 30411, "ottomans": 17774, "obey": 15470, "aggregator": 24089, "##otype": 26305, "##kon": 19648, "papua": 13049, "jian": 29214, "wild": 3748, "2014": 2297, "plus": 4606, "denotes": 14796, "islanders": 16422, "ohio": 4058, "armenian": 7508, "##imated": 20592, "\u062f": 1278, "continent": 9983, "switching": 11991, "fourth": 2959, "##uld": 21285, "lust": 11516, "oclc": 12258, "collateral": 24172, "altitudes": 21973, "chatting": 22331, "##\u0283": 29696, "##berman": 23991, "swelling": 18348, "doubt": 4797, "##gie": 11239, "capturing": 11847, "nascar": 11838, "convex": 18309, "roc": 21326, "defining": 12854, "gemini": 21424, "##tsa": 27110, "##tness": 27401, "olivia": 7710, "##vot": 22994, "##\u0575": 29777, "##lkirk": 23913, "wi": 15536, "sheet": 7123, "##ados": 28118, "##lete": 25890, "dakota": 7734, "116": 12904, "##ater": 24932, "love": 2293, "bi": 12170, "charm": 11084, "units": 3197, "pagoda": 27387, "pieter": 23759, "rest": 2717, "[unused892]": 897, "69": 6353, "recess": 28290, "inscribed": 14551, "landon": 20642, "synthetic": 12553, "recovering": 13400, "hospitals": 8323, "wheelchair": 13204, "##nin": 11483, "\u771f": 1921, "soil": 5800, "ambiguity": 27637, "\u6c34": 1893, "##cca": 16665, "hardcover": 20990, "rpg": 22531, "predominant": 21047, "vishnu": 17647, "gender": 5907, "kinase": 21903, "portsmouth": 10913, "##\u044f": 17432, "fluffy": 27036, "sighs": 19906, "wondering": 6603, "ascot": 29036, "compulsion": 27638, "294": 28135, "reader": 8068, "mitch": 11857, "topics": 7832, "\u1166": 1473, "[unused311]": 316, "[unused954]": 959, "sioux": 16615, "jerome": 11120, "une": 16655, "deposition": 19806, "tourists": 9045, "gt": 14181, "odyssey": 18735, "talk": 2831, "squadron": 3704, "enough": 2438, "jordanian": 26276, "330": 14210, "walkway": 19467, "##\u6c34": 30419, "admitted": 4914, "converse": 23705, "purpose": 3800, "malawi": 18137, "unto": 19662, "hillary": 18520, "police": 2610, "##meric": 25531, "pleasures": 26552, "societe": 18341, "royalist": 20796, "mythology": 11327, "##icon": 28524, "corinne": 26879, "##\u1d62": 19109, "leave": 2681, "##genic": 16505, "approach": 3921, "spying": 22624, "harmony": 9396, "##50": 12376, "pipe": 8667, "\u3066": 1665, "vowels": 15260, "gerard": 11063, "utterly": 12580, "reformation": 13708, "everywhere": 7249, "el": 3449, "las": 5869, "necessitated": 29611, "bree": 21986, "violence": 4808, "trait": 18275, "##ative": 8082, "##itt": 12474, "[unused410]": 415, "shirts": 11344, "explorer": 10566, "heresy": 28354, "tasks": 8518, "yoon": 24863, "layered": 21323, "simultaneously": 7453, "##cek": 25368, "originated": 7940, "##\u30ed": 30261, "interpreter": 19555, "those": 2216, "sellers": 19041, "prisoner": 7267, "bus": 3902, "monastic": 17361, "##tea": 27058, "reorganized": 14137, "federally": 20892, "dissatisfaction": 28237, "volga": 26459, "##aja": 22734, "generous": 12382, "squid": 26852, "pitted": 25895, "kissing": 7618, "synthesized": 23572, "freud": 19338, "##\u0646": 15915, "christine": 10941, "guthrie": 19952, "##hardt": 13778, "interpreted": 10009, "##ration": 8156, "fraternity": 13577, "detroit": 5626, "##berry": 9766, "##master": 8706, "unfolded": 23959, "guardian": 6697, "michaels": 17784, "connell": 17199, "detailing": 17555, "haute": 18535, "##70": 19841, "masters": 5972, "hezbollah": 25713, "##23": 21926, "##itis": 13706, "albuquerque": 19334, "wishing": 10261, "[unused530]": 535, "m2": 25525, "bjp": 24954, "##auer": 21126, "christians": 8135, "mayfield": 27224, "acknowledges": 28049, "jared": 8334, "respond": 6869, "04": 5840, "##end": 10497, "##amps": 25167, "##roi": 26692, "##rch": 11140, "huh": 9616, "differentiate": 21032, "##rily": 11272, "really": 2428, "[unused231]": 236, "china": 2859, "temperate": 16868, "scratching": 20291, "halfway": 8576, "00": 4002, "burning": 5255, "bailey": 8925, "##der": 4063, "##mad": 25666, "villagers": 11904, "stuart": 6990, "jenna": 13504, "marlene": 26921, "rubbed": 7503, "depth": 5995, "doubles": 7695, "calvert": 24800, "simpler": 16325, "staggering": 26233, "martyr": 17216, "usaf": 18531, "compass": 16681, "##ight": 18743, "neural": 15756, "baritone": 14458, "220": 10545, "beard": 10154, "requiring": 9034, "##sund": 25168, "##guchi": 16918, "\u27e8": 1629, "##\u2095": 30093, "tidy": 29369, "\u3042": 1646, "blasting": 26239, "rae": 14786, "hungry": 7501, "##dis": 10521, "imagine": 5674, "dubai": 11558, "##suka": 26544, "debating": 20767, "decrease": 9885, "heats": 18559, "pass": 3413, "bentley": 15988, "claire": 6249, "tuesday": 9857, "##\u03b9\u03b1": 27432, "hines": 25445, "##opped": 27288, "ns": 24978, "fragrance": 24980, "boards": 7923, "guilty": 5905, "downwards": 28457, "oldham": 18285, "1995": 2786, "surfer": 27747, "##onus": 24891, "[unused811]": 816, "pg": 18720, "bobby": 6173, "guggenheim": 20402, "operates": 5748, "gerhard": 21037, "##rien": 23144, "tensor": 23435, "selling": 4855, "shiny": 12538, "##\u592a": 30338, "##lum": 12942, "##ouring": 27897, "serbia": 7238, "mole": 16709, "zhang": 9327, "narrowing": 21978, "##\u2207": 30123, "eurasian": 23399, "##edging": 28002, "\u300a": 1639, "\u0e19": 1413, "aliens": 12114, "ours": 14635, "\u6226": 1856, "champaign": 28843, "\u0437": 1187, "exponential": 27258, "##rdi": 17080, "consulate": 19972, "air": 2250, "piston": 16733, "[unused376]": 381, "disruption": 20461, "pickering": 27078, "fragmented": 26872, "wallis": 24029, "##uven": 27346, "export": 9167, "\u5dde": 1836, "racers": 25791, "apprenticeship": 20448, "clergy": 11646, "andre": 7213, "hook": 8103, "jacket": 6598, "dodd": 21258, "traverse": 20811, "##nated": 23854, "##roud": 21332, "guilt": 8056, "recipient": 7799, "##mere": 13759, "delegate": 11849, "[unused59]": 60, "madman": 28441, "psychologists": 25428, "consumed": 10202, "blossoms": 28766, "##tre": 7913, "intensity": 8015, "annexation": 18985, "squat": 26783, "750": 9683, "honesty": 16718, "benedictine": 21139, "##\u8a01": 30475, "##dly": 18718, "luther": 9678, "brendan": 15039, "holding": 3173, "huron": 21899, "intact": 10109, "##eville": 21187, "migrated": 13447, "natalie": 10829, "##nsk": 25564, "succeed": 9510, "healing": 8907, "rotate": 24357, "##chman": 19944, "reintroduced": 28263, "thyroid": 29610, "bwv": 23860, "werner": 14121, "##t": 2102, "prevalent": 15157, "lamp": 10437, "##lco": 22499, "bruises": 18438, "nor": 4496, "weight": 3635, "biographer": 17121, "silently": 8601, "drafts": 28967, "candidate": 4018, "contacted": 11925, "##rk": 8024, "155": 14168, "crust": 19116, "puff": 23893, "oriental": 11481, "luckily": 15798, "diana": 8805, "cree": 27831, "##nsky": 25655, "interruption": 24191, "konstantin": 23989, "405": 23988, "##\u7701": 30446, "mrs": 3680, "argentina": 5619, "probability": 9723, "##mons": 16563, "menu": 12183, "unification": 16905, "lengthy": 12401, "mauritius": 18004, "gray": 3897, "cigarette": 9907, "redesign": 25136, "##tm": 21246, "combined": 4117, "guidelines": 11594, "dig": 10667, "##\u6c37": 30421, "##?": 29632, "##aga": 16098, "##walk": 17122, "stomped": 21918, "rushed": 6760, "similar": 2714, "bengals": 23227, "[unused878]": 883, "##zzo": 12036, "serra": 22737, "soils": 13622, "touch": 3543, "##ese": 6810, "definitely": 5791, "[unused645]": 650, "jericho": 17309, "antonio": 4980, "approximate": 15796, "binds": 20817, "calais": 23116, "triumphant": 25251, "admiralty": 14179, "##oning": 13369, "muscle": 6740, "1798": 13036, "131": 14677, "kawasaki": 27324, "repository": 22409, "microwave": 18302, "\u00b1": 1081, "rulers": 11117, "forerunner": 23993, "##pa": 4502, "##\u570b": 30326, "\u2605": 1620, "yd": 21076, "##\u092f": 29868, "glare": 10982, "supermarkets": 26676, "pet": 9004, "dedication": 12276, "budgets": 26178, "\u110f": 1466, "liberated": 19553, "g": 1043, "prank": 26418, "marianne": 19887, "methods": 4725, "nationwide": 9053, "##l": 2140, "mccall": 25790, "markers": 16387, "odin": 26195, "structural": 8332, "eccentric": 18080, "##ych": 17994, "bearer": 20905, "de": 2139, "##\u06af": 29842, "##\u0142aw": 19704, "angela": 10413, "\u30a1": 1692, "canucks": 26177, "townspeople": 27938, "[unused348]": 353, "##xton": 14226, "fine": 2986, "##\u2018": 30055, "##nius": 20447, "packets": 23730, "sunset": 10434, "hitter": 18694, "cited": 6563, "knock": 7324, "resin": 24604, "218": 20741, "string": 5164, "##\u2076": 30075, "frequency": 6075, "[unused783]": 788, "46th": 27990, "scottish": 4104, "genie": 22519, "grandpa": 15310, "ni": 9152, "imagery": 13425, "folder": 19622, "liar": 16374, "alliances": 21277, "##rix": 17682, "batman": 8942, "dowager": 20508, "999": 25897, "alleging": 23294, "herb": 12810, "headquarters": 4075, "\u2190": 1583, "##cles": 18954, "johannesburg": 15976, "\u02b7": 1143, "clergyman": 22232, "[unused203]": 208, "vault": 11632, "anders": 15387, "napier": 21320, "interview": 4357, "ar": 12098, "##ams": 13596, "##standing": 24911, "vii": 8890, "##ically": 15004, "carly": 18431, "fraction": 12884, "\u5927": 1810, "ph": 6887, "drift": 11852, "cancelled": 8014, "##eger": 26320, "dismay": 20006, "##ward": 7652, "take": 2202, "garde": 14535, "conditioning": 14372, "[unused957]": 962, "garion": 12523, "##hed": 9072, "disk": 9785, "##champ": 25450, "plan": 2933, "vertically": 20018, "assimilation": 27574, "popularity": 6217, "##ede": 14728, "foot": 3329, "enterprises": 9926, "guam": 16162, "gal": 14891, "ultimatum": 29227, "rescuing": 23659, "rage": 7385, "##11": 14526, "primetime": 18474, "[unused164]": 169, "\u10db": 1448, "confederacy": 18179, "flirting": 20661, "internationally": 7587, "scotia": 9676, "bikes": 18105, "incorporates": 12374, "formidable": 18085, "entertainer": 21751, "bournemouth": 22882, "upstream": 13909, "renee": 17400, "\ufb01": 1984, "julian": 6426, "vulture": 27588, "nanjing": 21455, "##\u0259": 29681, "berry": 10498, "glanced": 3887, "connie": 16560, "doug": 8788, "mocked": 24195, "forrest": 16319, "cobb": 17176, "singles": 3895, "avalanche": 18846, "catastrophic": 23546, "childish": 24282, "advocate": 8175, "postwar": 20013, "cookie": 17387, "jet": 6892, "peptide": 25117, "##lani": 21141, "calculate": 18422, "scoring": 4577, "collection": 3074, "59": 5354, "##ntino": 25318, "##plication": 21557, "generating": 11717, "woodward": 19133, "antiquities": 21387, "erasmus": 26809, "\uff5e": 1995, "brave": 9191, "recommendations": 11433, "pilgrims": 17992, "gaines": 28645, "\u5f8c": 1846, "songwriters": 20602, "##face": 12172, "waterfalls": 24236, "undertook": 12543, "##kka": 15714, "[unused107]": 112, "traps": 16735, "award": 2400, "shuddered": 13937, "zeppelin": 22116, "dazzling": 28190, "-": 1011, "consuming": 15077, "##boats": 19468, "produced": 2550, "bright": 4408, "##oth": 14573, "wealth": 7177, "vols": 18709, "1648": 22533, "harpsichord": 26504, "beautiful": 3376, "atp": 12649, "sectional": 27197, "212": 18164, "##ife": 29323, "arithmetic": 20204, "yuan": 11237, "vaulted": 24616, "##essed": 23656, "carnival": 11485, "bayer": 26367, "##\u091a": 29854, "weights": 15871, "structures": 5090, "noctuidae": 24893, "1842": 10008, "cale": 21854, "junctions": 27169, "democratic": 3537, "##\u6c35": 30420, "##ull": 18083, "##mania": 27010, "recognised": 7843, "##etto": 20082, "##lis": 6856, "with": 2007, "pursuits": 23719, "peer": 8152, "drills": 28308, "##phs": 18757, "clinical": 6612, "bathroom": 5723, "offering": 5378, "##urgent": 27176, "ultimately": 4821, "skiing": 12701, "##\u5e1d": 30364, "sentiment": 15792, "performances": 4616, "[unused102]": 107, "vegetable": 15415, "driveway": 11202, "antiquity": 16433, "declining": 13993, "cardinal": 7185, "bounce": 17523, "[unused556]": 561, "buck": 10131, "commune": 5715, "eliminate": 11027, "semantic": 21641, "1996": 2727, "entropy": 23077, "textbook": 16432, "bite": 6805, "boasts": 21979, "zombie": 11798, "1887": 6837, "rude": 12726, "qing": 13282, "curves": 10543, "limerick": 15679, "humanity": 8438, "drag": 8011, "jumped": 5598, "pic": 27263, "ismail": 19214, "##eros": 27360, "salty": 23592, "cried": 6639, "monitor": 8080, "nesting": 21016, "resignation": 8172, "stuffing": 28652, "##iensis": 27806, "standings": 11869, "##gation": 12540, "abrams": 23063, "##\u53e4": 30315, "elephant": 10777, "dove": 10855, "##58": 27814, "rosy": 26851, "guerre": 24613, "mice": 12328, "aspects": 5919, "wah": 22894, "supervised": 13588, "potsdam": 26554, "utter": 14395, "conscious": 9715, "djs": 23837, "ashok": 28916, "preparatory": 13485, "runaway": 19050, "##dington": 21504, "mosques": 21922, "guillermo": 21070, "anne": 4776, "clashed": 22600, "murdering": 21054, "composure": 23619, "\u0f53": 1429, "hide": 5342, "comprised": 11539, "##uram": 27618, "executed": 6472, "v8": 15754, "##khar": 22510, "mcmahon": 17741, "macmillan": 15434, "stadion": 20756, "\u2044": 1535, "proclaimed": 10116, "extends": 8908, "someday": 13834, "chord": 13924, "1783": 15331, "programs": 3454, "\u2033": 1532, "##ute": 10421, "generosity": 26161, "weddings": 20429, "sabres": 26969, "steiner": 21264, "calendar": 8094, "achieve": 6162, "anchor": 8133, "fe": 10768, "##rka": 22379, "[MASK]": 103, "\u02d0": 1150, "##jk": 15992, "ordering": 13063, "1915": 4936, "messaging": 24732, "cookies": 16324, "mackay": 17090, "comeback": 12845, "negro": 12593, "huff": 21301, "enters": 8039, "rafael": 10999, "https": 16770, "navajo": 22440, "mcdonnell": 23149, "hesitantly": 24626, "marketed": 11625, "\u09a1": 1360, "bottled": 26071, "1742": 25704, "abc": 5925, "spears": 13957, "tv": 2694, "##ff": 4246, "shape": 4338, "rookie": 8305, "priorities": 18402, "orthodoxy": 26582, "arrival": 5508, "amore": 26297, "kitchener": 27154, "sadler": 29012, "coming": 2746, "##weight": 11179, "clockwise": 22839, "dimensions": 9646, "plc": 15492, "galicia": 19017, "relating": 8800, "redundant": 21707, "amin": 24432, "confirming": 19195, "##ur": 3126, "apples": 18108, "ambitious": 12479, "illusion": 12492, "unacceptable": 21873, "##atory": 14049, "intentions": 11174, "hans": 7003, "clarity": 15563, "\u662d": 1868, "supposed": 4011, "##gence": 17905, "[unused172]": 177, "##\u5bae": 30350, "guernsey": 24640, "##hom": 23393, "determines": 16463, "timing": 10984, "houghton": 21234, "reinstated": 18671, "74": 6356, "mounds": 19503, "doncaster": 18895, "griffiths": 21960, "biodiversity": 17194, "##cola": 26289, "marks": 6017, "core": 4563, "##65": 26187, "##puram": 17809, "##lch": 29358, "bra": 11655, "[unused115]": 120, "##yah": 17560, "bison": 22285, "screened": 12238, "feldman": 26908, "keynote": 25569, "##rring": 18807, "##roup": 22107, "seduce": 23199, "##nda": 8943, "exports": 14338, "tb": 26419, "artifact": 20785, "sandstone": 11694, "ti": 14841, "stint": 12116, "##coat": 16531, "\u4e5f": 1750, "observation": 8089, "\u3088": 1684, "[unused647]": 652, "##tino": 25690, "##oku": 21940, "##drome": 29171, "median": 3991, "bizarre": 13576, "cesare": 26708, "##30": 14142, "lucky": 5341, "102": 9402, "##comb": 18274, "cinematographer": 19245, "prose": 12388, "anal": 20302, "restoring": 16487, "athens": 7571, "ward": 4829, "airs": 14369, "sure": 2469, "storytelling": 20957, "##gn": 16206, "welsh": 6124, "well": 2092, "masks": 15806, "##ena": 8189, "hai": 15030, "unpublished": 19106, "##sion": 10992, "##pl": 24759, "flopped": 24723, "##hner": 28989, "##hi": 4048, "##static": 16677, "directed": 2856, "23rd": 13928, "ears": 5551, "enoch": 28178, "subdivided": 15369, "irregularities": 28868, "valentin": 24632, "295": 21679, "hurriedly": 23878, "##hang": 18003, "##\u03c0": 29731, "implementing": 14972, "chanting": 22417, "fulfill": 13883, "argyle": 26503, "acquired": 3734, "concluded": 5531, "475": 28245, "[unused755]": 760, "blackburn": 13934, "idea": 2801, "log": 8833, "##mot": 18938, "homme": 26574, "ventura": 21151, "rocker": 24779, "enclosure": 17539, "humiliating": 28284, "nut": 17490, "sudden": 5573, "heartbeat": 12251, "catholic": 3234, "##fies": 14213, "continuity": 13717, "##vance": 21789, "answers": 6998, "[unused82]": 83, "advising": 23875, "##ps": 4523, "considerably": 9839, "49ers": 18156, "1600": 14883, "afl": 10028, "rep": 16360, "beijing": 7211, "sash": 24511, "tri": 13012, "inherit": 22490, "undermine": 25174, "shade": 8703, "murphy": 7104, "paramount": 11734, "remarkable": 9487, "native": 3128, "wylie": 29152, "harness": 17445, "knowles": 22815, "wolfgang": 13865, "theirs": 17156, "hampton": 11615, "1879": 7449, "iowa": 5947, "needs": 3791, "instinctively": 16607, "disappearance": 13406, "\u0431": 1181, "##nian": 11148, "bulk": 9625, "gear": 6718, "##\u2088": 30084, "##scia": 27210, "##pic": 24330, "sought": 4912, "ingredients": 12760, "mouthed": 20521, "\u04cf": 1218, "musik": 28076, "[unused14]": 15, "fronts": 21430, "distributor": 16632, "taylor": 4202, "gasp": 12008, "bold": 7782, "musica": 21137, "melville": 20154, "waterfall": 14297, "flag": 5210, "indo": 11424, "permit": 9146, "om": 18168, "mutiny": 19306, "causes": 5320, "noticed": 4384, "twentieth": 9086, "going": 2183, "1910": 4976, "rossi": 18451, "colby": 18650, "evil": 4763, "[unused895]": 900, "[unused306]": 311, "##elli": 13348, "##\u30a2": 30219, "reconciliation": 16088, "mlb": 10901, "glue": 25238, "crore": 21665, "##tsu": 10422, "##saka": 29289, "capsule": 18269, "\u21c4": 1589, "intensified": 15767, "salvador": 10582, "##ead": 13775, "curran": 19649, "ann": 5754, "immortal": 12147, "witnessing": 24740, "##ode": 10244, "surrounds": 20626, "hurst": 26405, "nw": 22064, "shang": 29382, "##uj": 23049, "kendall": 14509, "barrow": 15355, "##dez": 24601, "rematch": 18229, "london": 2414, "groaned": 9655, "dickson": 22076, "comets": 27138, "rubbing": 10137, "strokes": 13692, "travelling": 8932, "descent": 6934, "gross": 7977, "correction": 18140, "voluntary": 10758, "cousin": 5542, "screening": 11326, "ebook": 26885, "condemn": 28887, "cord": 11601, "refer": 6523, "rising": 4803, "bowl": 4605, "##king": 6834, "\u5ddd": 1835, "\u1167": 1474, "mixture": 8150, "##and": 5685, "##\u1d64": 30044, "##omic": 22026, "##rank": 26763, "sarcasm": 20954, "larsen": 20094, "exhausted": 9069, "##dd": 14141, "slight": 7263, "##z": 2480, "protruding": 23868, "demonstrates": 16691, "waves": 5975, "[unused170]": 175, "nets": 16996, "watford": 21740, "nilsson": 29376, "nazareth": 27192, "lev": 23310, "##\u300d": 30168, "acquisitions": 19530, "laurent": 14718, "##\u044b": 29113, "junior": 3502, "##\u2093": 30092, "##sari": 22740, "mining": 5471, "horton": 18469, "caliber": 15977, "##\uff1a": 30519, "faa": 17032, "imaginary": 15344, "##nse": 12325, "remind": 10825, "##gration": 29397, "##lo": 4135, "refrigerator": 18097, "##pg": 26952, "remixed": 17574, "##\u067e": 29839, "sustain": 15770, "barony": 19365, "grassy": 22221, "##oides": 25064, "announcer": 14073, "##elle": 14774, "##efined": 28344, "[unused90]": 91, "manny": 16320, "##iso": 19565, "brigham": 22727, "caravan": 17184, "\u5802": 1805, "##talk": 28014, "[unused685]": 690, "traded": 7007, "##eron": 26534, "nsw": 11524, "[unused234]": 239, "\u0282": 1129, "##ggy": 22772, "##gal": 9692, "bookstore": 21785, "behaviors": 15592, "##berto": 21201, "\u03b1": 1155, "##\u0bb3": 29929, "bonnie": 12220, "millions": 8817, "##ping": 4691, "parole": 17393, "anglican": 9437, "provision": 9347, "jacobite": 28725, "##ban": 8193, "##ice": 6610, "mayor": 3664, "haitian": 21404, "landscapes": 12793,
[...]
